{
  "version": "1.0",
  "truncation": null,
  "padding": null,
  "added_tokens": [
    {
      "id": 0,
      "content": "[BOS]",
      "single_word": false,
      "lstrip": false,
      "rstrip": false,
      "normalized": false,
      "special": true
    },
    {
      "id": 1,
      "content": "[EOS]",
      "single_word": false,
      "lstrip": false,
      "rstrip": false,
      "normalized": false,
      "special": true
    },
    {
      "id": 2,
      "content": "[PAD]",
      "single_word": false,
      "lstrip": false,
      "rstrip": false,
      "normalized": false,
      "special": true
    },
    {
      "id": 3,
      "content": "<think>",
      "single_word": false,
      "lstrip": false,
      "rstrip": false,
      "normalized": false,
      "special": true
    },
    {
      "id": 4,
      "content": "</think>",
      "single_word": false,
      "lstrip": false,
      "rstrip": false,
      "normalized": false,
      "special": true
    },
    {
      "id": 5,
      "content": "[UNK]",
      "single_word": false,
      "lstrip": false,
      "rstrip": false,
      "normalized": false,
      "special": true
    }
  ],
  "normalizer": null,
  "pre_tokenizer": {
    "type": "ByteLevel",
    "add_prefix_space": false,
    "trim_offsets": true,
    "use_regex": true
  },
  "post_processor": null,
  "decoder": null,
  "model": {
    "type": "BPE",
    "dropout": null,
    "unk_token": "[UNK]",
    "continuing_subword_prefix": null,
    "end_of_word_suffix": null,
    "fuse_unk": false,
    "byte_fallback": false,
    "ignore_merges": false,
    "vocab": {
      "[BOS]": 0,
      "[EOS]": 1,
      "[PAD]": 2,
      "<think>": 3,
      "</think>": 4,
      "[UNK]": 5,
      "!": 6,
      "\"": 7,
      "#": 8,
      "$": 9,
      "%": 10,
      "&": 11,
      "'": 12,
      "(": 13,
      ")": 14,
      "*": 15,
      "+": 16,
      ",": 17,
      "-": 18,
      ".": 19,
      "/": 20,
      "0": 21,
      "1": 22,
      "2": 23,
      "3": 24,
      "4": 25,
      "5": 26,
      "6": 27,
      "7": 28,
      "8": 29,
      "9": 30,
      ":": 31,
      ";": 32,
      "<": 33,
      "=": 34,
      ">": 35,
      "?": 36,
      "@": 37,
      "A": 38,
      "B": 39,
      "C": 40,
      "D": 41,
      "E": 42,
      "F": 43,
      "G": 44,
      "H": 45,
      "I": 46,
      "J": 47,
      "K": 48,
      "L": 49,
      "M": 50,
      "N": 51,
      "O": 52,
      "P": 53,
      "Q": 54,
      "R": 55,
      "S": 56,
      "T": 57,
      "U": 58,
      "V": 59,
      "W": 60,
      "X": 61,
      "Y": 62,
      "Z": 63,
      "[": 64,
      "\\": 65,
      "]": 66,
      "^": 67,
      "_": 68,
      "`": 69,
      "a": 70,
      "b": 71,
      "c": 72,
      "d": 73,
      "e": 74,
      "f": 75,
      "g": 76,
      "h": 77,
      "i": 78,
      "j": 79,
      "k": 80,
      "l": 81,
      "m": 82,
      "n": 83,
      "o": 84,
      "p": 85,
      "q": 86,
      "r": 87,
      "s": 88,
      "t": 89,
      "u": 90,
      "v": 91,
      "w": 92,
      "x": 93,
      "y": 94,
      "z": 95,
      "{": 96,
      "|": 97,
      "}": 98,
      "~": 99,
      "¡": 100,
      "¢": 101,
      "£": 102,
      "¤": 103,
      "¥": 104,
      "¦": 105,
      "§": 106,
      "¨": 107,
      "©": 108,
      "ª": 109,
      "«": 110,
      "¬": 111,
      "®": 112,
      "¯": 113,
      "°": 114,
      "±": 115,
      "²": 116,
      "³": 117,
      "´": 118,
      "µ": 119,
      "¶": 120,
      "·": 121,
      "¸": 122,
      "¹": 123,
      "º": 124,
      "»": 125,
      "¼": 126,
      "½": 127,
      "¾": 128,
      "¿": 129,
      "À": 130,
      "Á": 131,
      "Â": 132,
      "Ã": 133,
      "Ä": 134,
      "Å": 135,
      "Æ": 136,
      "Ç": 137,
      "È": 138,
      "É": 139,
      "Ê": 140,
      "Ë": 141,
      "Ì": 142,
      "Í": 143,
      "Î": 144,
      "Ï": 145,
      "Ð": 146,
      "Ñ": 147,
      "Ò": 148,
      "Ó": 149,
      "Ô": 150,
      "Õ": 151,
      "Ö": 152,
      "×": 153,
      "Ø": 154,
      "Ù": 155,
      "Ú": 156,
      "Û": 157,
      "Ü": 158,
      "Ý": 159,
      "Þ": 160,
      "ß": 161,
      "à": 162,
      "á": 163,
      "â": 164,
      "ã": 165,
      "ä": 166,
      "å": 167,
      "æ": 168,
      "ç": 169,
      "è": 170,
      "é": 171,
      "ê": 172,
      "ë": 173,
      "ì": 174,
      "í": 175,
      "î": 176,
      "ï": 177,
      "ð": 178,
      "ñ": 179,
      "ò": 180,
      "ó": 181,
      "ô": 182,
      "õ": 183,
      "ö": 184,
      "÷": 185,
      "ø": 186,
      "ù": 187,
      "ú": 188,
      "û": 189,
      "ü": 190,
      "ý": 191,
      "þ": 192,
      "ÿ": 193,
      "Ā": 194,
      "ā": 195,
      "Ă": 196,
      "ă": 197,
      "Ą": 198,
      "ą": 199,
      "Ć": 200,
      "ć": 201,
      "Ĉ": 202,
      "ĉ": 203,
      "Ċ": 204,
      "ċ": 205,
      "Č": 206,
      "č": 207,
      "Ď": 208,
      "ď": 209,
      "Đ": 210,
      "đ": 211,
      "Ē": 212,
      "ē": 213,
      "Ĕ": 214,
      "ĕ": 215,
      "Ė": 216,
      "ė": 217,
      "Ę": 218,
      "ę": 219,
      "Ě": 220,
      "ě": 221,
      "Ĝ": 222,
      "ĝ": 223,
      "Ğ": 224,
      "ğ": 225,
      "Ġ": 226,
      "ġ": 227,
      "Ģ": 228,
      "ģ": 229,
      "Ĥ": 230,
      "ĥ": 231,
      "Ħ": 232,
      "ħ": 233,
      "Ĩ": 234,
      "ĩ": 235,
      "Ī": 236,
      "ī": 237,
      "Ĭ": 238,
      "ĭ": 239,
      "Į": 240,
      "į": 241,
      "İ": 242,
      "ı": 243,
      "Ĳ": 244,
      "ĳ": 245,
      "Ĵ": 246,
      "ĵ": 247,
      "Ķ": 248,
      "ķ": 249,
      "ĸ": 250,
      "Ĺ": 251,
      "ĺ": 252,
      "Ļ": 253,
      "ļ": 254,
      "Ľ": 255,
      "ľ": 256,
      "Ŀ": 257,
      "ŀ": 258,
      "Ł": 259,
      "ł": 260,
      "Ń": 261,
      "Ġ\"": 262,
      "Ġt": 263,
      "\":": 264,
      "he": 265,
      "on": 266,
      "re": 267,
      "ti": 268,
      "in": 269,
      "Ġa": 270,
      "er": 271,
      "Ġthe": 272,
      "tion": 273,
      "es": 274,
      "\",": 275,
      "Ġs": 276,
      "or": 277,
      "me": 278,
      "{\"": 279,
      "Ġ{\"": 280,
      "Ġc": 281,
      "st": 282,
      "at": 283,
      "Ġto": 284,
      "Ġf": 285,
      "pe": 286,
      "ri": 287,
      "nt": 288,
      "Ġp": 289,
      "al": 290,
      "ol": 291,
      "ing": 292,
      "ar": 293,
      "ty": 294,
      "et": 295,
      "ed": 296,
      "ame": 297,
      "ou": 298,
      "},": 299,
      "Ġi": 300,
      "\\\"": 301,
      "type": 302,
      "ro": 303,
      "nc": 304,
      "Ġn": 305,
      "Ġw": 306,
      "ic": 307,
      "qu": 308,
      "us": 309,
      "nd": 310,
      "Ġd": 311,
      "ption": 312,
      "Ġb": 313,
      "Ġre": 314,
      "des": 315,
      "cri": 316,
      "cription": 317,
      "it": 318,
      "Ġin": 319,
      "The": 320,
      "Ġo": 321,
      "Ġm": 322,
      "description": 323,
      "an": 324,
      "unc": 325,
      "ire": 326,
      "Ġfor": 327,
      "unction": 328,
      "ve": 329,
      "ter": 330,
      "quire": 331,
      "le": 332,
      "Ġus": 333,
      "ul": 334,
      "Ġ\\\"": 335,
      "Ġis": 336,
      "ĠI": 337,
      "Ġtool": 338,
      "Ġl": 339,
      "id": 340,
      "ring": 341,
      "quired": 342,
      "Ġof": 343,
      "function": 344,
      "as": 345,
      "Ġand": 346,
      "ist": 347,
      ".\\": 348,
      "il": 349,
      "Ġe": 350,
      "ay": 351,
      "ge": 352,
      "ation": 353,
      "Ġuser": 354,
      "name": 355,
      "required": 356,
      "Ġ[": 357,
      "all": 358,
      "ameter": 359,
      "arameter": 360,
      "string": 361,
      "ĠS": 362,
      "Ġas": 363,
      "ut": 364,
      "**": 365,
      "te": 366,
      "}},": 367,
      "de": 368,
      "Ġpro": 369,
      "Ġth": 370,
      "ch": 371,
      "ant": 372,
      "arameters": 373,
      "ct": 374,
      "'s": 375,
      "\"},": 376,
      "ate": 377,
      "ĠThe": 378,
      "ur": 379,
      "Ġst": 380,
      "is": 381,
      "Ġh": 382,
      "ĠA": 383,
      "ow": 384,
      "om": 385,
      ".\",": 386,
      "ck": 387,
      "Ġ(": 388,
      "ith": 389,
      "se": 390,
      "per": 391,
      "con": 392,
      "Ġwith": 393,
      "ld": 394,
      "Ġne": 395,
      "Ġg": 396,
      "ci": 397,
      "th": 398,
      "ce": 399,
      "Ġme": 400,
      "age": 401,
      "pro": 402,
      "ties": 403,
      "ra": 404,
      "ver": 405,
      "rie": 406,
      "ment": 407,
      "ke": 408,
      "ail": 409,
      "dic": 410,
      "ig": 411,
      "Ġse": 412,
      "Ġy": 413,
      "ĠC": 414,
      "ould": 415,
      "vid": 416,
      "Ġcall": 417,
      "ull": 418,
      "sist": 419,
      "perties": 420,
      "to": 421,
      "]},": 422,
      "ir": 423,
      "Ġso": 424,
      "dict": 425,
      "Ġon": 426,
      "ult": 427,
      "um": 428,
      "properties": 429,
      "parameters": 430,
      "ole": 431,
      "Ġnull": 432,
      "ab": 433,
      "sistant": 434,
      "Ġor": 435,
      "Ġbe": 436,
      "am": 437,
      "Get": 438,
      "peci": 439,
      "ly": 440,
      "tent": 441,
      "Ġthat": 442,
      "Ġare": 443,
      "Ġyou": 444,
      "Ġwh": 445,
      "\\\":": 446,
      "Ġ[\"": 447,
      "gu": 448,
      "Ġtools": 449,
      "Ġan": 450,
      "role": 451,
      "}]": 452,
      "pecif": 453,
      "Ġit": 454,
      "Ġsh": 455,
      "\"]},": 456,
      "ot": 457,
      "Ġprovid": 458,
      "ĠL": 459,
      "content": 460,
      "Ġneed": 461,
      "out": 462,
      "rieve": 463,
      "Ġ**": 464,
      "ĠB": 465,
      "ng": 466,
      "\"}},": 467,
      "ht": 468,
      "Ġret": 469,
      "ĠĠ": 470,
      "Ġspecif": 471,
      "Ġbut": 472,
      "for": 473,
      "lo": 474,
      "Ġ[{\"": 475,
      "ĠT": 476,
      "'t": 477,
      "ich": 478,
      "oo": 479,
      "fa": 480,
      "ess": 481,
      "ĠM": 482,
      "Ġex": 483,
      "Ġwhich": 484,
      "up": 485,
      "ata": 486,
      "est": 487,
      "20": 488,
      "\\\",": 489,
      "Ġcan": 490,
      "form": 491,
      "Ġ\\": 492,
      "ore": 493,
      "ĠP": 494,
      "Ġcon": 495,
      "be": 496,
      "ink": 497,
      "ll": 498,
      "rom": 499,
      "fault": 500,
      "Ġshould": 501,
      "heck": 502,
      "Ġ1": 503,
      "ort": 504,
      "Ret": 505,
      "ag": 506,
      "ĠSo": 507,
      "ait": 508,
      "king": 509,
      "Ġparameters": 510,
      "ain": 511,
      "ĠID": 512,
      "Ġby": 513,
      "ments": 514,
      "Wait": 515,
      "ting": 516,
      "Ġfunction": 517,
      "ure": 518,
      "ĠU": 519,
      "Ġprovided": 520,
      "ount": 521,
      "Ġfrom": 522,
      "aybe": 523,
      "tool": 524,
      "Ġres": 525,
      "Ġ'": 526,
      "Ġha": 527,
      "}}]": 528,
      "ĠD": 529,
      "ber": 530,
      "ĠH": 531,
      "Ġde": 532,
      "ode": 533,
      "00": 534,
      "im": 535,
      "Ġlist": 536,
      "ĠE": 537,
      "Ġassistant": 538,
      "Ġhe": 539,
      "nce": 540,
      "able": 541,
      "ĠF": 542,
      "ĠN": 543,
      "oc": 544,
      "lu": 545,
      "ry": 546,
      "ated": 547,
      "ad": 548,
      "urre": 549,
      "think": 550,
      "ie": 551,
      "ight": 552,
      "Ġdata": 553,
      "her": 554,
      "Ġcheck": 555,
      "ity": 556,
      "Ġab": 557,
      "ion": 558,
      "ap": 559,
      "ord": 560,
      "Ġthey": 561,
      "ive": 562,
      "en": 563,
      "umber": 564,
      "port": 565,
      "Ġper": 566,
      "Ġv": 567,
      "guments": 568,
      "user": 569,
      "res": 570,
      "Ġabout": 571,
      "ĠR": 572,
      "ations": 573,
      "arch": 574,
      "PI": 575,
      "xt": 576,
      "Ġmaybe": 577,
      "pon": 578,
      "Ġhave": 579,
      "pl": 580,
      "23": 581,
      "Ġch": 582,
      "Ġif": 583,
      "our": 584,
      "Ġac": 585,
      "ĠAPI": 586,
      "Ġinc": 587,
      "vail": 588,
      "formation": 589,
      "Ġspecific": 590,
      "Ġwe": 591,
      "art": 592,
      "vers": 593,
      "Ġqu": 594,
      "ach": 595,
      "assistant": 596,
      "Ġcom": 597,
      "Retrieve": 598,
      "Ġstring": 599,
      "Ġname": 600,
      "Ġretrieve": 601,
      "Ġavail": 602,
      ".,": 603,
      "ust": 604,
      "default": 605,
      "Ġup": 606,
      "ince": 607,
      "etail": 608,
      "urn": 609,
      "int": 610,
      "un": 611,
      "Ġ{": 612,
      "ers": 613,
      "arguments": 614,
      "Ġpo": 615,
      "Ġma": 616,
      "Ġget": 617,
      "Ġli": 618,
      "ase": 619,
      "Ġrequired": 620,
      "Ġavailable": 621,
      "Ġ-": 622,
      "dd": 623,
      "Ġuse": 624,
      "ction": 625,
      "Ġte": 626,
      "ple": 627,
      "ĠBut": 628,
      "irst": 629,
      "Ġinclu": 630,
      "--": 631,
      "Ġinformation": 632,
      "tic": 633,
      "com": 634,
      "Ġsay": 635,
      "Ġwant": 636,
      "Ġ20": 637,
      "ime": 638,
      "ies": 639,
      "Ġcurre": 640,
      "Ġnumber": 641,
      "ym": 642,
      "nWait": 643,
      "ran": 644,
      "ĠW": 645,
      "Ġat": 646,
      "ĠG": 647,
      "ance": 648,
      "ati": 649,
      "orre": 650,
      "ory": 651,
      "Ġpl": 652,
      "ponse": 653,
      "call": 654,
      "ĠLet": 655,
      "\"}": 656,
      "Ġlike": 657,
      "Ġthere": 658,
      "em": 659,
      ">\\": 660,
      "ates": 661,
      "Ġnot": 662,
      "orrect": 663,
      "Ġthis": 664,
      "Ġgive": 665,
      "ateg": 666,
      "bol": 667,
      "ymbol": 668,
      "Ġrequire": 669,
      "ountry": 670,
      "ther": 671,
      "Ġfunctions": 672,
      "ru": 673,
      ")\",": 674,
      "po": 675,
      "Ġmore": 676,
      "Ġge": 677,
      "od": 678,
      "etails": 679,
      "che": 680,
      "**:": 681,
      "if": 682,
      "Ġcorrect": 683,
      "ress": 684,
      "get": 685,
      "og": 686,
      "Ġgiven": 687,
      "Ġparameter": 688,
      "Ġmight": 689,
      "ast": 690,
      "kay": 691,
      "iz": 692,
      "ble": 693,
      "Ġdes": 694,
      "Ġall": 695,
      "Ġar": 696,
      "ery": 697,
      "ner": 698,
      "YY": 699,
      "tools": 700,
      "mat": 701,
      "nO": 702,
      "Ġsays": 703,
      "Ġloc": 704,
      "Ġreturn": 705,
      "Ġpre": 706,
      "Ġj": 707,
      "Ġnew": 708,
      "Ġasking": 709,
      "Ġadd": 710,
      "Ġcurrent": 711,
      "and": 712,
      "Ġhas": 713,
      "Ġacc": 714,
      "</": 715,
      "loat": 716,
      "du": 717,
      "}],": 718,
      "Ġeach": 719,
      "Ġsome": 720,
      "ĠJ": 721,
      "ves": 722,
      "convers": 723,
      "ally": 724,
      "nOkay": 725,
      "di": 726,
      "ntion": 727,
      "Ġ\"<": 728,
      "\"}],": 729,
      "}}]}": 730,
      "conversations": 731,
      "ied": 732,
      "nS": 733,
      "Ġim": 734,
      "ĠWait": 735,
      "ne": 736,
      "}}],": 737,
      "calls": 738,
      "ĠIn": 739,
      "fe": 740,
      "one": 741,
      "?\"},": 742,
      "ls": 743,
      "Ġno": 744,
      "Ġone": 745,
      "Ġupd": 746,
      "ĠO": 747,
      "Ġmention": 748,
      "Ġtime": 749,
      "ilter": 750,
      "##": 751,
      "vi": 752,
      ":\\": 753,
      "nThe": 754,
      "ps": 755,
      "ue": 756,
      "Ġk": 757,
      "angu": 758,
      "ong": 759,
      "Ġresponse": 760,
      "ical": 761,
      "float": 762,
      "ard": 763,
      "âĢ": 764,
      "Ġ{\\\"": 765,
      "Ġhere": 766,
      "Ġtheir": 767,
      "nti": 768,
      "ncy": 769,
      "Ġval": 770,
      "ample": 771,
      "Ġle": 772,
      "ooking": 773,
      "Ġtw": 774,
      "ark": 775,
      "Ġrequires": 776,
      "ptional": 777,
      "key": 778,
      "ĠGet": 779,
      "ults": 780,
      "45": 781,
      "Ġcalls": 782,
      "ac": 783,
      "ock": 784,
      "Ġother": 785,
      "Id": 786,
      "ree": 787,
      "Ġformat": 788,
      "nI": 789,
      "Ġdefault": 790,
      "Ġcode": 791,
      "Ġnow": 792,
      "Ġsu": 793,
      "now": 794,
      "Ġspecified": 795,
      "vent": 796,
      "ine": 797,
      "Ġsearch": 798,
      "Ġmake": 799,
      "ĠV": 800,
      "lp": 801,
      "Ġco": 802,
      "Ġfirst": 803,
      "ever": 804,
      "ook": 805,
      "\"}}}],": 806,
      "Ġdetails": 807,
      "ategory": 808,
      "123": 809,
      "Ġsince": 810,
      "ous": 811,
      "ari": 812,
      "der": 813,
      "nSo": 814,
      "ear": 815,
      "ding": 816,
      "Ġask": 817,
      "Ġtwo": 818,
      "eo": 819,
      "ĠĠĠĠ": 820,
      "\\\".": 821,
      "Ġupdated": 822,
      "ason": 823,
      "Ġem": 824,
      "Ġquery": 825,
      "ary": 826,
      "cts": 827,
      "Ġany": 828,
      "ĠY": 829,
      ">\"}],": 830,
      "RL": 831,
      "Ġprovide": 832,
      "owever": 833,
      "ork": 834,
      "ack": 835,
      "ign": 836,
      "Ġgener": 837,
      "ill": 838,
      "Ġap": 839,
      "Ġty": 840,
      "Ġpri": 841,
      "rieves": 842,
      "ial": 843,
      "anguage": 844,
      "ĠURL": 845,
      "Ġ3": 846,
      "Ġknow": 847,
      "que": 848,
      "atest": 849,
      "aps": 850,
      "ĠHowever": 851,
      "essage": 852,
      "Ġdate": 853,
      "quest": 854,
      "Ġinclude": 855,
      "are": 856,
      "ier": 857,
      "Ġ2": 858,
      "Ġset": 859,
      "val": 860,
      "word": 861,
      "Ġdid": 862,
      "Ġr": 863,
      "Ġcountry": 864,
      "ip": 865,
      "aly": 866,
      "Ġdescription": 867,
      "his": 868,
      "Ġwould": 869,
      "Ġlocation": 870,
      "hat": 871,
      "Ġun": 872,
      "ual": 873,
      "Ġmat": 874,
      "fo": 875,
      "Ġhelp": 876,
      "Ġdidn": 877,
      "ition": 878,
      "ased": 879,
      "Ġrequest": 880,
      "Ġlet": 881,
      "Ġsee": 882,
      "pan": 883,
      "),": 884,
      "Ġsymbol": 885,
      "haps": 886,
      "ĠSt": 887,
      "Ġperhaps": 888,
      "Ġmo": 889,
      "omain": 890,
      "Ġmessage": 891,
      "Ġtra": 892,
      "Ġfin": 893,
      "low": 894,
      "blem": 895,
      "ss": 896,
      "Ġproblem": 897,
      "01": 898,
      "earch": 899,
      "ass": 900,
      ".\"},": 901,
      "ex": 902,
      "Ġ5": 903,
      "act": 904,
      "co": 905,
      "Ġstock": 906,
      "ages": 907,
      "arket": 908,
      "Ġyour": 909,
      "ma": 910,
      "par": 911,
      "Ġdo": 912,
      "ew": 913,
      "Ġout": 914,
      "',": 915,
      "Ġdon": 916,
      "Ġusing": 917,
      "Ġet": 918,
      "les": 919,
      "Ġreg": 920,
      "je": 921,
      "ice": 922,
      "nF": 923,
      ").": 924,
      "Ġmentioned": 925,
      "nL": 926,
      "fore": 927,
      "Ġfol": 928,
      "put": 929,
      "Ġjust": 930,
      "Ġ`": 931,
      "denti": 932,
      "day": 933,
      "text": 934,
      "red": 935,
      "Ġaddress": 936,
      "Ġkey": 937,
      "Ġwhe": 938,
      "Ġspecify": 939,
      "Ġsa": 940,
      "tive": 941,
      "Ġonly": 942,
      "ia": 943,
      "Ġpage": 944,
      "video": 945,
      "ĠSince": 946,
      "ns": 947,
      "ent": 948,
      "imit": 949,
      "ange": 950,
      "tions": 951,
      "Ġal": 952,
      "Ġ202": 953,
      "Ġbo": 954,
      "Ġresults": 955,
      "time": 956,
      "lso": 957,
      "ces": 958,
      "ek": 959,
      "Ġfilter": 960,
      "Ġra": 961,
      "Ġag": 962,
      "ram": 963,
      "Ġwants": 964,
      "ield": 965,
      "Ġthree": 966,
      "dentif": 967,
      "ches": 968,
      "Ġend": 969,
      "Ġlatest": 970,
      "ning": 971,
      "ĠRe": 972,
      "cess": 973,
      "Ġetc": 974,
      "ww": 975,
      "istor": 976,
      "we": 977,
      "cture": 978,
      "Ġbased": 979,
      "ĠMaybe": 980,
      "ub": 981,
      "Ġoptional": 982,
      "Ġass": 983,
      "10": 984,
      "Ġ[]},": 985,
      "ite": 986,
      "range": 987,
      "end": 988,
      "ser": 989,
      "ball": 990,
      "ose": 991,
      "tern": 992,
      "Ġtype": 993,
      "ak": 994,
      "istorical": 995,
      "rans": 996,
      "agu": 997,
      "fere": 998,
      "vie": 999,
      "ick": 1000,
      "ize": 1001,
      "own": 1002,
      "ile": 1003,
      "ish": 1004,
      "Ġidentif": 1005,
      "igh": 1006,
      "ique": 1007,
      ":/": 1008,
      "ph": 1009,
      "ions": 1010,
      "Ġrel": 1011,
      "SO": 1012,
      "ject": 1013,
      "Ġsup": 1014,
      "Ġneeded": 1015,
      "Ġplay": 1016,
      "://": 1017,
      "erm": 1018,
      "lease": 1019,
      "ility": 1020,
      "ports": 1021,
      "sw": 1022,
      "code": 1023,
      "page": 1024,
      "Retrieves": 1025,
      "Ġthem": 1026,
      "yst": 1027,
      "nFirst": 1028,
      "Ġinst": 1029,
      "und": 1030,
      "Ġevent": 1031,
      "Ġcalled": 1032,
      "Ġagain": 1033,
      "ames": 1034,
      "Ġnews": 1035,
      "rend": 1036,
      "Ġser": 1037,
      "Ġexpe": 1038,
      "url": 1039,
      "cul": 1040,
      "pt": 1041,
      "ĠFor": 1042,
      "âĢĻ": 1043,
      "Ġsure": 1044,
      "Ġansw": 1045,
      "tra": 1046,
      "ructure": 1047,
      "fic": 1048,
      "symbol": 1049,
      "Ġseason": 1050,
      "ystem": 1051,
      "Ġexample": 1052,
      "Ġanaly": 1053,
      "curre": 1054,
      "ang": 1055,
      "Ġboth": 1056,
      "orage": 1057,
      "ague": 1058,
      "To": 1059,
      "ĠUS": 1060,
      "ude": 1061,
      "vel": 1062,
      "rig": 1063,
      "anc": 1064,
      "rou": 1065,
      "Ġtext": 1066,
      "\"}}},": 1067,
      "78": 1068,
      "Ġteam": 1069,
      "ace": 1070,
      "Ġasked": 1071,
      "ocu": 1072,
      "Ġdomain": 1073,
      "Ġneeds": 1074,
      "ake": 1075,
      "bo": 1076,
      "ative": 1077,
      "Ġthose": 1078,
      "pany": 1079,
      "lev": 1080,
      "Ġvideo": 1081,
      "os": 1082,
      "loc": 1083,
      "ors": 1084,
      "Ġcategory": 1085,
      "Ġlanguage": 1086,
      "atus": 1087,
      "202": 1088,
      "Ġcl": 1089,
      "Ġwas": 1090,
      "Ġprodu": 1091,
      ".\\\"": 1092,
      "tps": 1093,
      "Ġimage": 1094,
      "This": 1095,
      "onth": 1096,
      "iod": 1097,
      "Ġincluding": 1098,
      "Ġinfo": 1099,
      "Ġ10": 1100,
      "Ġstructure": 1101,
      "Ġyear": 1102,
      "ĠIt": 1103,
      "iti": 1104,
      ":**": 1105,
      "ĠIDs": 1106,
      "Ġtop": 1107,
      "vious": 1108,
      "nB": 1109,
      "cent": 1110,
      "ven": 1111,
      "Ġfield": 1112,
      "Ġemail": 1113,
      "Ġsepar": 1114,
      "ĠCh": 1115,
      "Ġused": 1116,
      "Ġwithout": 1117,
      "quirer": 1118,
      "fin": 1119,
      "el": 1120,
      "amp": 1121,
      "ood": 1122,
      "Ġcol": 1123,
      "bs": 1124,
      ").\",": 1125,
      "Ġpost": 1126,
      "ĠWhat": 1127,
      "Ġstart": 1128,
      "Ġreturns": 1129,
      "Ġmarket": 1130,
      "Ġidentifier": 1131,
      "MM": 1132,
      "Ġthese": 1133,
      "ĠCan": 1134,
      "oose": 1135,
      "Ġph": 1136,
      "Ġsystem": 1137,
      "-\\": 1138,
      "alcul": 1139,
      "Ġstate": 1140,
      "Ġprevious": 1141,
      "Ġrelev": 1142,
      "ities": 1143,
      "Ġits": 1144,
      "pto": 1145,
      "\\\".\\": 1146,
      "Ġmy": 1147,
      "Ġ0": 1148,
      "rypto": 1149,
      "ating": 1150,
      "Ġconf": 1151,
      "ctions": 1152,
      "Ġchoose": 1153,
      "ĠK": 1154,
      "ories": 1155,
      "###": 1156,
      "Ġgenerate": 1157,
      "Ġthen": 1158,
      "ask": 1159,
      "nBut": 1160,
      "ĠThere": 1161,
      "change": 1162,
      "Ġrelevant": 1163,
      "Ġ{},": 1164,
      "ome": 1165,
      "Ġweek": 1166,
      "agram": 1167,
      "ocument": 1168,
      "Ġdif": 1169,
      "Ġfollow": 1170,
      "ĠThey": 1171,
      "tics": 1172,
      "ĠNew": 1173,
      "nLooking": 1174,
      "sis": 1175,
      "In": 1176,
      "op": 1177,
      "vice": 1178,
      "Ġaccess": 1179,
      "Ġact": 1180,
      "stagram": 1181,
      "ality": 1182,
      "---\\": 1183,
      "ete": 1184,
      "point": 1185,
      "Ġseparate": 1186,
      "iss": 1187,
      "ĠPro": 1188,
      "ound": 1189,
      "'ll": 1190,
      "Ġlooking": 1191,
      "ĠQ": 1192,
      "Ġ4": 1193,
      "Ġprice": 1194,
      "imum": 1195,
      "pos": 1196,
      "**\\": 1197,
      "Search": 1198,
      "456": 1199,
      "US": 1200,
      "Ġwill": 1201,
      "https": 1202,
      "{\\\"": 1203,
      "gh": 1204,
      "St": 1205,
      "tist": 1206,
      "ving": 1207,
      "ca": 1208,
      "Ġinte": 1209,
      "ost": 1210,
      "Ġsaid": 1211,
      "ĠDe": 1212,
      "Ġanswer": 1213,
      "Ġdoes": 1214,
      "iness": 1215,
      "Return": 1216,
      "cond": 1217,
      "Ġhand": 1218,
      "Ġsc": 1219,
      "sent": 1220,
      "YYYY": 1221,
      ")\\": 1222,
      "Re": 1223,
      "etch": 1224,
      "Ġbet": 1225,
      "Ġunique": 1226,
      "Ġad": 1227,
      "tem": 1228,
      "ags": 1229,
      "right": 1230,
      "ĠCom": 1231,
      "DD": 1232,
      "Ġhow": 1233,
      "Ġhistorical": 1234,
      "the": 1235,
      "Can": 1236,
      "load": 1237,
      "Ġinter": 1238,
      "Ġcomm": 1239,
      "ĠInstagram": 1240,
      "date": 1241,
      "ues": 1242,
      "ĠRes": 1243,
      "usiness": 1244,
      "Ġsame": 1245,
      "fer": 1246,
      "son": 1247,
      "Ġdiffere": 1248,
      "Ġ*": 1249,
      "Ġaut": 1250,
      "ries": 1251,
      "Ġcould": 1252,
      "light": 1253,
      "'re": 1254,
      "Ġtrans": 1255,
      "Ġvalue": 1256,
      "Ġback": 1257,
      "ient": 1258,
      "Ġgame": 1259,
      "gg": 1260,
      "olu": 1261,
      "ob": 1262,
      "cu": 1263,
      "view": 1264,
      "ft": 1265,
      "ath": 1266,
      "min": 1267,
      "Ġcre": 1268,
      "ID": 1269,
      "ĠIf": 1270,
      "bab": 1271,
      "Ġarguments": 1272,
      "SON": 1273,
      "tim": 1274,
      "Ġtrend": 1275,
      "ĠLe": 1276,
      "country": 1277,
      "Ġday": 1278,
      "ording": 1279,
      "ey": 1280,
      "nament": 1281,
      "Ġfour": 1282,
      "Ġmatch": 1283,
      "not": 1284,
      "Ġrelated": 1285,
      "Ġcompany": 1286,
      "Ġwhat": 1287,
      "ication": 1288,
      "Ġfind": 1289,
      "Ġrec": 1290,
      "work": 1291,
      "location": 1292,
      "tain": 1293,
      "Returns": 1294,
      "Ġvalid": 1295,
      "Filter": 1296,
      "lish": 1297,
      "Ġman": 1298,
      "Ġisn": 1299,
      "Ġmonth": 1300,
      "nIn": 1301,
      "Ġdocument": 1302,
      "Ġprobab": 1303,
      "'m": 1304,
      "ide": 1305,
      "cial": 1306,
      "789": 1307,
      "'.": 1308,
      "ular": 1309,
      "Ġaccording": 1310,
      "Ġste": 1311,
      "ale": 1312,
      "its": 1313,
      "ik": 1314,
      "ible": 1315,
      "nA": 1316,
      "----": 1317,
      "currency": 1318,
      "mm": 1319,
      "Ġsche": 1320,
      "Ġdetail": 1321,
      "Ġpoint": 1322,
      "tin": 1323,
      "Ġ2023": 1324,
      "row": 1325,
      "Ġiniti": 1326,
      "Ġalso": 1327,
      "ategories": 1328,
      "Ġcontext": 1329,
      "nN": 1330,
      "ows": 1331,
      "use": 1332,
      "ĠCon": 1333,
      "Ġpart": 1334,
      "ings": 1335,
      "als": 1336,
      "ric": 1337,
      "Ġexpl": 1338,
      "list": 1339,
      "Ġdifferent": 1340,
      "oot": 1341,
      "Ġrange": 1342,
      "ote": 1343,
      "DF": 1344,
      "Pro": 1345,
      "Ġnext": 1346,
      "ĠAl": 1347,
      "Ġusername": 1348,
      "vert": 1349,
      "Ġcrypto": 1350,
      "atform": 1351,
      "ource": 1352,
      "vides": 1353,
      "line": 1354,
      "ability": 1355,
      "Ġregion": 1356,
      "Ġdat": 1357,
      "Ġprobably": 1358,
      "dia": 1359,
      "Ġcount": 1360,
      "Ġlast": 1361,
      "ken": 1362,
      "Ġdefin": 1363,
      "ep": 1364,
      "tit": 1365,
      "ĠAll": 1366,
      "Ġsupport": 1367,
      "Ġmatches": 1368,
      "Ġkeyword": 1369,
      "Ġdetailed": 1370,
      "Name": 1371,
      "sh": 1372,
      "Ġfetch": 1373,
      "ures": 1374,
      "ownload": 1375,
      "category": 1376,
      "irect": 1377,
      "ĠIP": 1378,
      "Ġen": 1379,
      "ually": 1380,
      "start": 1381,
      "Ġwhere": 1382,
      "Ġtit": 1383,
      "Ġartic": 1384,
      "rest": 1385,
      ".)\",": 1386,
      "anne": 1387,
      "example": 1388,
      "Ġstorage": 1389,
      "chn": 1390,
      "ĠJSON": 1391,
      "Ġfe": 1392,
      "Ġaccount": 1393,
      "olog": 1394,
      "isting": 1395,
      "ff": 1396,
      "ĠNow": 1397,
      "Ġdoesn": 1398,
      "Ġperiod": 1399,
      "limit": 1400,
      "atis": 1401,
      "000": 1402,
      "Ġinstru": 1403,
      "ix": 1404,
      "ud": 1405,
      "Ġmiss": 1406,
      "Ġdis": 1407,
      "12": 1408,
      "15": 1409,
      "Ġpresent": 1410,
      "Ġlisted": 1411,
      "IN": 1412,
      "ĠEx": 1413,
      "?\\\"": 1414,
      "older": 1415,
      "ustom": 1416,
      "AA": 1417,
      "ters": 1418,
      "igin": 1419,
      "Ġcurrency": 1420,
      "ceed": 1421,
      "Ġproduct": 1422,
      "Ġstatus": 1423,
      "Ġover": 1424,
      "Ġsti": 1425,
      "Ġretrieves": 1426,
      "ination": 1427,
      "ib": 1428,
      "Ġreal": 1429,
      "ĠPDF": 1430,
      "ximum": 1431,
      "thing": 1432,
      "ootball": 1433,
      "pri": 1434,
      "ðŁ": 1435,
      "Con": 1436,
      ").\\": 1437,
      "Ġcalcul": 1438,
      "ternative": 1439,
      "ics": 1440,
      "results": 1441,
      "Ġplease": 1442,
      "ash": 1443,
      "Ġexact": 1444,
      "air": 1445,
      "read": 1446,
      "ĠUser": 1447,
      "Ġappro": 1448,
      "PL": 1449,
      "umm": 1450,
      "www": 1451,
      "Ġhandle": 1452,
      "Ġpag": 1453,
      "Ġlimit": 1454,
      "Ġro": 1455,
      "ĠSearch": 1456,
      "Ġques": 1457,
      "Ġproceed": 1458,
      "nglish": 1459,
      "ere": 1460,
      "Ġaf": 1461,
      "Ġhasn": 1462,
      "gan": 1463,
      "ancial": 1464,
      "ener": 1465,
      "Ġ6": 1466,
      "Ġdial": 1467,
      "..": 1468,
      "optional": 1469,
      "ĠTe": 1470,
      "ze": 1471,
      "Ġsecond": 1472,
      "ten": 1473,
      "Ġhigh": 1474,
      "Ġ|": 1475,
      "ĠAn": 1476,
      "hor": 1477,
      "ins": 1478,
      "Ġseem": 1479,
      "Ġpop": 1480,
      "Ġdates": 1481,
      "lock": 1482,
      "irm": 1483,
      "Ġendpoint": 1484,
      "atch": 1485,
      "Ġmet": 1486,
      "Ġdialog": 1487,
      "av": 1488,
      "Ġstand": 1489,
      "search": 1490,
      "Ġanalysis": 1491,
      "Ġoption": 1492,
      "ubl": 1493,
      "Ġcontent": 1494,
      "Check": 1495,
      "Ġpass": 1496,
      "ĠYou": 1497,
      "etwork": 1498,
      "oh": 1499,
      "Ġperform": 1500,
      "annel": 1501,
      "ongs": 1502,
      "Ġsign": 1503,
      "Ġcap": 1504,
      "ator": 1505,
      "Ġright": 1506,
      "Ġnames": 1507,
      "Ġexchange": 1508,
      "Ġtoday": 1509,
      "Ġplatform": 1510,
      "ĠCould": 1511,
      "Ġprovides": 1512,
      "ĠDetails": 1513,
      "Ġtour": 1514,
      "ĠNo": 1515,
      "Ġmedia": 1516,
      "count": 1517,
      "icker": 1518,
      "Ġrecent": 1519,
      "ĠList": 1520,
      ")\"},": 1521,
      "perty": 1522,
      "Ġmin": 1523,
      "Ġdefinition": 1524,
      "Ġsugg": 1525,
      "rand": 1526,
      "ify": 1527,
      "âĢĶ": 1528,
      "Ġinitial": 1529,
      "Ġinto": 1530,
      "Ġorigin": 1531,
      "Ġemp": 1532,
      "atistics": 1533,
      "alth": 1534,
      "Ġexpects": 1535,
      "cause": 1536,
      "istory": 1537,
      "Ġspecifically": 1538,
      "Ġ7": 1539,
      "\\\"},": 1540,
      "ved": 1541,
      "Tok": 1542,
      "Ġob": 1543,
      "2023": 1544,
      "ctive": 1545,
      "Ġcity": 1546,
      "Ġrespon": 1547,
      "bsite": 1548,
      "Ġchart": 1549,
      "Ġdirect": 1550,
      "Ġbusiness": 1551,
      "Ġfields": 1552,
      "reg": 1553,
      "under": 1554,
      "ternatively": 1555,
      "Com": 1556,
      "abase": 1557,
      "Ġassist": 1558,
      "Ġtim": 1559,
      "lug": 1560,
      "ources": 1561,
      "arget": 1562,
      "Ġear": 1563,
      "TC": 1564,
      "lection": 1565,
      "Ġcorrectly": 1566,
      "Ġver": 1567,
      "Ġsub": 1568,
      "ĠResponse": 1569,
      "Ġarticles": 1570,
      "Ġam": 1571,
      "ords": 1572,
      "data": 1573,
      "dule": 1574,
      "ĠYYYY": 1575,
      "Ġtournament": 1576,
      "raph": 1577,
      "pes": 1578,
      "Ġindic": 1579,
      "ower": 1580,
      "Ġtitle": 1581,
      "ĠInformation": 1582,
      "Ġ\"[": 1583,
      "li": 1584,
      "Ġmissing": 1585,
      "`,": 1586,
      "Ġstep": 1587,
      "Ġwhen": 1588,
      "ats": 1589,
      "ĠThis": 1590,
      "AT": 1591,
      "Ġ\"[{\\\"": 1592,
      "Ġcons": 1593,
      "Ġ\"},": 1594,
      "Ġprom": 1595,
      "Ġoutput": 1596,
      "arac": 1597,
      "ise": 1598,
      "version": 1599,
      "ave": 1600,
      "Ġposs": 1601,
      "ĠPl": 1602,
      "username": 1603,
      "cl": 1604,
      "play": 1605,
      "Ġmode": 1606,
      "alse": 1607,
      "}}]\"},": 1608,
      "Ġconfirm": 1609,
      "ĠðŁ": 1610,
      "Ġpar": 1611,
      "ets": 1612,
      "ather": 1613,
      "ward": 1614,
      "Ġwork": 1615,
      "urs": 1616,
      "05": 1617,
      "ĠĠĠ": 1618,
      "ĠAp": 1619,
      "language": 1620,
      "pre": 1621,
      "ĠĠĠĠĠĠĠĠ": 1622,
      "Ġcase": 1623,
      "ology": 1624,
      "Ġfolder": 1625,
      "Ġstill": 1626,
      "?\\": 1627,
      "ply": 1628,
      "number": 1629,
      "Ġcodes": 1630,
      "Ġbecause": 1631,
      "Ġterm": 1632,
      "coin": 1633,
      "ĠX": 1634,
      "nLet": 1635,
      "Ġpagination": 1636,
      "ulti": 1637,
      "Ġvalues": 1638,
      "Ġ$": 1639,
      "Ġdi": 1640,
      "curi": 1641,
      "ML": 1642,
      "ax": 1643,
      "Ġinv": 1644,
      "ype": 1645,
      "Ġ9": 1646,
      "book": 1647,
      "by": 1648,
      "ital": 1649,
      "usic": 1650,
      "Ġair": 1651,
      "ian": 1652,
      "mit": 1653,
      "Ġevents": 1654,
      "other": 1655,
      "Ġconvert": 1656,
      "Ġmost": 1657,
      "Ġsim": 1658,
      "ĠNews": 1659,
      "Ġ8": 1660,
      "Ġz": 1661,
      "ĠEnglish": 1662,
      "tract": 1663,
      "ĠInd": 1664,
      "dul": 1665,
      "ween": 1666,
      "nInquirer": 1667,
      "Ġretrie": 1668,
      "Un": 1669,
      "itude": 1670,
      "Ġeven": 1671,
      "Ġplan": 1672,
      "30": 1673,
      "ence": 1674,
      "'ve": 1675,
      "way": 1676,
      "wit": 1677,
      "ĠUn": 1678,
      "Te": 1679,
      "ĠSe": 1680,
      "19": 1681,
      "olean": 1682,
      "led": 1683,
      "ature": 1684,
      "16": 1685,
      "Code": 1686,
      "Ġcle": 1687,
      "ikTok": 1688,
      "Ġsection": 1689,
      "nThere": 1690,
      "title": 1691,
      "Could": 1692,
      "Res": 1693,
      "ational": 1694,
      "ĠTherefore": 1695,
      "action": 1696,
      "akes": 1697,
      "Ġfinancial": 1698,
      "ok": 1699,
      "Ġlook": 1700,
      "Ġrate": 1701,
      "ĠAlso": 1702,
      "Ġcont": 1703,
      "Ġins": 1704,
      "Ġwho": 1705,
      "An": 1706,
      "Ġcategories": 1707,
      "Ġtags": 1708,
      "nter": 1709,
      "Ġorder": 1710,
      "ready": 1711,
      "Ġmay": 1712,
      "Ġlong": 1713,
      "lect": 1714,
      "query": 1715,
      "old": 1716,
      "ngth": 1717,
      "ohn": 1718,
      "Ġanother": 1719,
      "rame": 1720,
      "ĠPri": 1721,
      "enum": 1722,
      "atient": 1723,
      "Ġunder": 1724,
      "Ġfil": 1725,
      "Ġmain": 1726,
      "ĠHmm": 1727,
      "ind": 1728,
      "Ġalready": 1729,
      "Ġtrack": 1730,
      "Ġbetween": 1731,
      "Ġ123": 1732,
      "back": 1733,
      "ization": 1734,
      "nces": 1735,
      "ĠYork": 1736,
      "Ġri": 1737,
      "Ġmust": 1738,
      "Ġwithin": 1739,
      "11": 1740,
      "set": 1741,
      "Ġactual": 1742,
      "nTherefore": 1743,
      "Ġcri": 1744,
      "ĠTikTok": 1745,
      "ĠAr": 1746,
      "ession": 1747,
      "Ġ15": 1748,
      "Ġgo": 1749,
      "ful": 1750,
      "ead": 1751,
      "pen": 1752,
      "ha": 1753,
      "hic": 1754,
      "dex": 1755,
      "aily": 1756,
      "zon": 1757,
      "Ġitem": 1758,
      "Ġadded": 1759,
      "Ġplayer": 1760,
      "Ġmulti": 1761,
      "ices": 1762,
      "Ġquestion": 1763,
      "Ġfalse": 1764,
      "ĠWe": 1765,
      "Ġinput": 1766,
      "ĠData": 1767,
      "ube": 1768,
      "plete": 1769,
      "âĢĵ": 1770,
      "Ġspe": 1771,
      "otes": 1772,
      "Ġtechn": 1773,
      "12345": 1774,
      "anguages": 1775,
      "tude": 1776,
      "format": 1777,
      "atitude": 1778,
      "duct": 1779,
      "ines": 1780,
      "orld": 1781,
      "add": 1782,
      "Ġaction": 1783,
      "mer": 1784,
      "uid": 1785,
      "ingle": 1786,
      "ases": 1787,
      "Ġve": 1788,
      "Ġstatement": 1789,
      "Ġtask": 1790,
      "Ġvari": 1791,
      "la": 1792,
      "city": 1793,
      "pic": 1794,
      "Ġgeneral": 1795,
      "ited": 1796,
      "Ġmaximum": 1797,
      "Ġ100": 1798,
      "oe": 1799,
      "Ġleague": 1800,
      "tical": 1801,
      "Ġlink": 1802,
      "very": 1803,
      "ough": 1804,
      "Ġproject": 1805,
      "Ġphone": 1806,
      "ĠLeague": 1807,
      "Ġpoints": 1808,
      "Ġbefore": 1809,
      "](": 1810,
      "Ġpossible": 1811,
      "check": 1812,
      "Ġdefaults": 1813,
      "Ġnecess": 1814,
      "inter": 1815,
      "Ex": 1816,
      "Ġexp": 1817,
      "Ġsp": 1818,
      "gle": 1819,
      "Ġcomp": 1820,
      "nre": 1821,
      "Ġprices": 1822,
      "Number": 1823,
      "Ġappl": 1824,
      "Ġbre": 1825,
      "Ġcryptocurrency": 1826,
      "Ġran": 1827,
      "bal": 1828,
      "ded": 1829,
      "tal": 1830,
      "Ġempty": 1831,
      "curity": 1832,
      "oud": 1833,
      "Ġplace": 1834,
      "Ġinterest": 1835,
      "}}}],": 1836,
      "ream": 1837,
      "Ġdatabase": 1838,
      "tick": 1839,
      "Ġnumbers": 1840,
      "Type": 1841,
      "from": 1842,
      "Ġcustom": 1843,
      "Ġafter": 1844,
      "Data": 1845,
      "ume": 1846,
      "Ġticker": 1847,
      "ted": 1848,
      "ordin": 1849,
      "Ġchang": 1850,
      "Ġnecessary": 1851,
      "Ġbase": 1852,
      "Ġdesign": 1853,
      "Ġpos": 1854,
      "Ġoriginal": 1855,
      "year": 1856,
      "ncies": 1857,
      ",\\\"": 1858,
      "Ġ\"\"},": 1859,
      "'d": 1860,
      "ĠSto": 1861,
      "estamp": 1862,
      "Ġfore": 1863,
      "oogle": 1864,
      "Ġactually": 1865,
      "boolean": 1866,
      "ĠDefault": 1867,
      "ank": 1868,
      "Ġrates": 1869,
      "Ġlevel": 1870,
      "Ġapproach": 1871,
      "Ġscore": 1872,
      "Ġfootball": 1873,
      "Ġsocial": 1874,
      "mail": 1875,
      "ond": 1876,
      "0000": 1877,
      "Ġcharac": 1878,
      "Ġrole": 1879,
      "Ġoff": 1880,
      "Ġwere": 1881,
      "ray": 1882,
      "coming": 1883,
      "Ġreturned": 1884,
      "Ġinstructions": 1885,
      "ts": 1886,
      ")\"}},": 1887,
      "Ġmean": 1888,
      "ublic": 1889,
      "vity": 1890,
      "season": 1891,
      "ffic": 1892,
      "Ġlog": 1893,
      "ĠCheck": 1894,
      "Ġwebsite": 1895,
      "=\\\"": 1896,
      "dition": 1897,
      "Ġexplain": 1898,
      "ĠZ": 1899,
      "Ġmade": 1900,
      "roup": 1901,
      "sk": 1902,
      "Ġsingle": 1903,
      "ross": 1904,
      "rue": 1905,
      "Ġartist": 1906,
      "ursor": 1907,
      "hicle": 1908,
      "Ġsports": 1909,
      "Ġ\"\"}},": 1910,
      "ars": 1911,
      "Ġinform": 1912,
      "Ġ=": 1913,
      "ws": 1914,
      "Ġprocess": 1915,
      "Ġsport": 1916,
      "Ġincludes": 1917,
      "Ġmultiple": 1918,
      "MS": 1919,
      "Ġexpect": 1920,
      "UR": 1921,
      "Ġthink": 1922,
      "ater": 1923,
      "rict": 1924,
      "itcoin": 1925,
      "Ġhasht": 1926,
      "Ġposts": 1927,
      "Ġinterval": 1928,
      "lights": 1929,
      "alance": 1930,
      "nder": 1931,
      "cept": 1932,
      "wn": 1933,
      "ideo": 1934,
      "enti": 1935,
      "ĠIm": 1936,
      "board": 1937,
      "ĠQR": 1938,
      "team": 1939,
      "Ġhour": 1940,
      "By": 1941,
      "ccess": 1942,
      "Tube": 1943,
      "uro": 1944,
      "Ġshow": 1945,
      "email": 1946,
      "Ġcountries": 1947,
      "Ġindex": 1948,
      "Ġusers": 1949,
      "ov": 1950,
      "Ġstandard": 1951,
      "Time": 1952,
      "mber": 1953,
      "56": 1954,
      "ove": 1955,
      "Ġstr": 1956,
      "less": 1957,
      "df": 1958,
      "Ġplayers": 1959,
      "Ġnetwork": 1960,
      "ĠSh": 1961,
      "Ġperformance": 1962,
      "Ġ30": 1963,
      "Date": 1964,
      "Ġstatistics": 1965,
      "'.\\": 1966,
      "ider": 1967,
      "period": 1968,
      "nH": 1969,
      "Ġsuch": 1970,
      "cre": 1971,
      "Ġcor": 1972,
      "ool": 1973,
      "erman": 1974,
      "Ġrespond": 1975,
      "hen": 1976,
      "lobal": 1977,
      "Ġpur": 1978,
      "Ġid": 1979,
      "ĠThat": 1980,
      "Ġes": 1981,
      "Ġdirectly": 1982,
      "ĠUSD": 1983,
      "Ġpol": 1984,
      "Ġimages": 1985,
      "mun": 1986,
      "Ġproperty": 1987,
      "List": 1988,
      "Ġsort": 1989,
      "ĠThen": 1990,
      "For": 1991,
      "chain": 1992,
      "Ġresult": 1993,
      "Ġcoordin": 1994,
      "nding": 1995,
      "USD": 1996,
      "Ġclear": 1997,
      "21": 1998,
      "ilar": 1999,
      "image": 2000,
      "address": 2001,
      "Ġbook": 2002,
      "Ġreport": 2003,
      "Ġdays": 2004,
      "Ġservice": 2005,
      "Ġ+": 2006,
      "Ġassume": 2007,
      "let": 2008,
      "ants": 2009,
      "Ġhistory": 2010,
      "cer": 2011,
      "Ġtri": 2012,
      "\"]": 2013,
      "ness": 2014,
      "Ġspeci": 2015,
      "mazon": 2016,
      "reum": 2017,
      "arter": 2018,
      "ĠTime": 2019,
      "Ġtrends": 2020,
      "verage": 2021,
      "Ġdownload": 2022,
      "Ġpath": 2023,
      "ĠFin": 2024,
      "ales": 2025,
      "Ġinstead": 2026,
      "alle": 2027,
      "urther": 2028,
      "Ġ[{\\\"": 2029,
      "ĠPlease": 2030,
      "123456": 2031,
      "Ġblock": 2032,
      "Ġtem": 2033,
      "Ġsumm": 2034,
      "Ġsupported": 2035,
      "cast": 2036,
      "Ap": 2037,
      "Ġcontin": 2038,
      "mend": 2039,
      "vo": 2040,
      "ĠTwit": 2041,
      "ware": 2042,
      "Ġcar": 2043,
      "Ġway": 2044,
      "ĠTeam": 2045,
      "!\"},": 2046,
      "Ġweb": 2047,
      "ither": 2048,
      "Ġ2022": 2049,
      "io": 2050,
      "nY": 2051,
      "Ġoptions": 2052,
      "ĠYouTube": 2053,
      "ndom": 2054,
      "Ġrandom": 2055,
      "Ġtarget": 2056,
      "Ġreci": 2057,
      "Ġreview": 2058,
      "keyword": 2059,
      "commend": 2060,
      "ĠCo": 2061,
      "off": 2062,
      "rel": 2063,
      "Ġbu": 2064,
      "kes": 2065,
      "CA": 2066,
      "New": 2067,
      "ĠInc": 2068,
      "Ġproducts": 2069,
      "Ġperson": 2070,
      "ET": 2071,
      "SL": 2072,
      "size": 2073,
      "ilities": 2074,
      "col": 2075,
      "Ġfurther": 2076,
      "Ġstra": 2077,
      "domain": 2078,
      "vices": 2079,
      "Ġour": 2080,
      "Ġnone": 2081,
      "Ġpast": 2082,
      "ism": 2083,
      "Ġschedul": 2084,
      "Gener": 2085,
      "Ġrespe": 2086,
      "Ch": 2087,
      "Ġbeen": 2088,
      "FT": 2089,
      "aut": 2090,
      "ext": 2091,
      "Ġorgan": 2092,
      "cra": 2093,
      "agement": 2094,
      "ration": 2095,
      "esting": 2096,
      "Ġchannel": 2097,
      "Se": 2098,
      "Ġhealth": 2099,
      "Ġshows": 2100,
      "ĠNumber": 2101,
      "BA": 2102,
      "Ġmusic": 2103,
      "ĠHistorical": 2104,
      "ocation": 2105,
      "Ġword": 2106,
      "Ġjob": 2107,
      "stand": 2108,
      "Ġones": 2109,
      "Ġsomething": 2110,
      "ĠYour": 2111,
      "ral": 2112,
      "igure": 2113,
      "ĠEach": 2114,
      "Ġtransl": 2115,
      "Ġtrending": 2116,
      "**,": 2117,
      "interval": 2118,
      "Ar": 2119,
      "thod": 2120,
      "ĠET": 2121,
      "Ġchecking": 2122,
      "ird": 2123,
      "asket": 2124,
      "09": 2125,
      "\\\"\\": 2126,
      "Ġallows": 2127,
      "Ġ12": 2128,
      "ocus": 2129,
      "Ġtotal": 2130,
      "Ġanalyze": 2131,
      "Ġteams": 2132,
      "Ġpe": 2133,
      "ural": 2134,
      "ĠBy": 2135,
      "asketball": 2136,
      "ogn": 2137,
      "Ġref": 2138,
      "Ġsaying": 2139,
      "olutions": 2140,
      "rib": 2141,
      "oci": 2142,
      "Ġ19": 2143,
      "Ġobject": 2144,
      "hip": 2145,
      "apan": 2146,
      "cting": 2147,
      "nAl": 2148,
      "ron": 2149,
      "Ġpatient": 2150,
      "Ġstore": 2151,
      "rics": 2152,
      "zone": 2153,
      "Ġsce": 2154,
      "Ġlive": 2155,
      "rough": 2156,
      "Ġschedule": 2157,
      "ĠPre": 2158,
      "Th": 2159,
      "olume": 2160,
      "Ġop": 2161,
      "Ġuses": 2162,
      "itional": 2163,
      "Ġ[\\\"": 2164,
      "ĠSongs": 2165,
      "ized": 2166,
      "07": 2167,
      "uration": 2168,
      "Ġdra": 2169,
      "Ġcolor": 2170,
      "--------": 2171,
      "Ġtest": 2172,
      "Ġcalculate": 2173,
      "ĠAA": 2174,
      "ping": 2175,
      "ĠQu": 2176,
      "vis": 2177,
      "Ġage": 2178,
      "Specif": 2179,
      "rowth": 2180,
      "api": 2181,
      "aur": 2182,
      "Ġtakes": 2183,
      "Ġfollows": 2184,
      "08": 2185,
      "Ġmodel": 2186,
      "ĠStock": 2187,
      "Ġregist": 2188,
      "Ġinf": 2189,
      "region": 2190,
      "stru": 2191,
      "Ġpopular": 2192,
      "Ġrespective": 2193,
      "Ġconvers": 2194,
      "tings": 2195,
      "De": 2196,
      "xy": 2197,
      "uring": 2198,
      "Ġcreate": 2199,
      "7890": 2200,
      "Ġplaceh": 2201,
      "ict": 2202,
      "rol": 2203,
      "Ġdist": 2204,
      "Ġsk": 2205,
      "gy": 2206,
      "Ġlead": 2207,
      "Ġcollection": 2208,
      "Ġrest": 2209,
      "Ġexisting": 2210,
      "core": 2211,
      "Ġtake": 2212,
      "estions": 2213,
      "ĠISO": 2214,
      "ĠCode": 2215,
      "iry": 2216,
      "Ġvideos": 2217,
      "slug": 2218,
      "Ġmovie": 2219,
      "Ġsize": 2220,
      "Ġent": 2221,
      "Ġupcoming": 2222,
      "Ġ2024": 2223,
      "posed": 2224,
      "ĠGerman": 2225,
      "frame": 2226,
      "25": 2227,
      "ily": 2228,
      "ctor": 2229,
      "Ġfollowing": 2230,
      "ience": 2231,
      "Ġ{}}}],": 2232,
      "Ġcommon": 2233,
      "ĠAAPL": 2234,
      "Ġ2020": 2235,
      "Unique": 2236,
      "conom": 2237,
      "Ġthrough": 2238,
      "\\\"}": 2239,
      "ĠStates": 2240,
      "Ġgenre": 2241,
      "43": 2242,
      "ayer": 2243,
      "por": 2244,
      "rop": 2245,
      "Ġproperties": 2246,
      "imate": 2247,
      "Ġcontinue": 2248,
      "arg": 2249,
      "Ġgames": 2250,
      "arity": 2251,
      "Ġ#": 2252,
      "cle": 2253,
      "Ġfloat": 2254,
      "bot": 2255,
      "ĠAmazon": 2256,
      "Ġgood": 2257,
      "event": 2258,
      "Ġstrings": 2259,
      "ticker": 2260,
      "Ġbrand": 2261,
      "ĠInquirer": 2262,
      "thereum": 2263,
      "Ġ50": 2264,
      "Ġanswers": 2265,
      "02": 2266,
      "Ġfile": 2267,
      "ĠSMS": 2268,
      "Ġstocks": 2269,
      "Response": 2270,
      "Ġeng": 2271,
      "ute": 2272,
      "nNo": 2273,
      "Ġverify": 2274,
      "riend": 2275,
      "ĠOr": 2276,
      "nings": 2277,
      "ograph": 2278,
      "03": 2279,
      "Ġprof": 2280,
      "ĠXML": 2281,
      "Ġsolutions": 2282,
      "Ġomit": 2283,
      "ild": 2284,
      "Ġshort": 2285,
      "Val": 2286,
      "ffe": 2287,
      "ises": 2288,
      "Ġsent": 2289,
      "ĠBitcoin": 2290,
      "Ġtimestamp": 2291,
      "tivity": 2292,
      "panies": 2293,
      "Ġfigure": 2294,
      "Ġvarious": 2295,
      "nse": 2296,
      "esla": 2297,
      "Ġassoci": 2298,
      "game": 2299,
      "sort": 2300,
      "Ġbetter": 2301,
      "nAlternatively": 2302,
      "pg": 2303,
      "eed": 2304,
      "arting": 2305,
      "Ġlanguages": 2306,
      "ĠVideo": 2307,
      "Ġsur": 2308,
      "Ġsuggest": 2309,
      "\\\"]": 2310,
      "ĠHere": 2311,
      "Ġsupposed": 2312,
      "Ġitems": 2313,
      "rary": 2314,
      "tt": 2315,
      "max": 2316,
      "lier": 2317,
      "storage": 2318,
      "Ġmist": 2319,
      "Ġquality": 2320,
      "Ġnote": 2321,
      "ĠAlternatively": 2322,
      "Ġonce": 2323,
      "Ġpair": 2324,
      "ulation": 2325,
      "Ġgu": 2326,
      "ples": 2327,
      "Ġtrue": 2328,
      "mode": 2329,
      "yo": 2330,
      "Ġlo": 2331,
      "1234": 2332,
      "state": 2333,
      "2020": 2334,
      "ĠEuro": 2335,
      "Ġsecurity": 2336,
      "Pl": 2337,
      "Ġoften": 2338,
      "ĠCommun": 2339,
      "BC": 2340,
      "redient": 2341,
      "level": 2342,
      "aset": 2343,
      "ĠPost": 2344,
      "nYes": 2345,
      "peti": 2346,
      "Ġyet": 2347,
      "Ġupdate": 2348,
      "med": 2349,
      "adata": 2350,
      "Ġel": 2351,
      "chool": 2352,
      "Ġannot": 2353,
      "ification": 2354,
      "Ġsafe": 2355,
      "Ġinvest": 2356,
      "fy": 2357,
      "Ġfut": 2358,
      "Ġrecommend": 2359,
      "Ġ24": 2360,
      "Ġtoken": 2361,
      "utes": 2362,
      "Ġthough": 2363,
      "Ġchange": 2364,
      "ĠApple": 2365,
      "Ġcoordinates": 2366,
      "Ġform": 2367,
      "ference": 2368,
      "dds": 2369,
      "nFor": 2370,
      "Le": 2371,
      "Ġsource": 2372,
      "icy": 2373,
      "AAPL": 2374,
      "Ġfund": 2375,
      "Ġinquirer": 2376,
      "void": 2377,
      "part": 2378,
      "Ġcard": 2379,
      "Ġshare": 2380,
      "ĠUnited": 2381,
      "Ġassociated": 2382,
      "Ġseems": 2383,
      "Ġfact": 2384,
      "istring": 2385,
      "upport": 2386,
      "Ġdec": 2387,
      "ampa": 2388,
      ")**": 2389,
      "forward": 2390,
      "Ġstraight": 2391,
      "Ġequ": 2392,
      "Ġproviding": 2393,
      "ĠTra": 2394,
      "sport": 2395,
      "65": 2396,
      "MA": 2397,
      "bum": 2398,
      "ĠPh": 2399,
      "Im": 2400,
      "Ġarea": 2401,
      "ĠTop": 2402,
      "Ġadditional": 2403,
      "Ġsymbols": 2404,
      "abc": 2405,
      "alysis": 2406,
      "divid": 2407,
      "ired": 2408,
      "Ġseries": 2409,
      "ledge": 2410,
      "Ġhours": 2411,
      "Ġâ": 2412,
      "Ġinterested": 2413,
      "so": 2414,
      "ampaign": 2415,
      "Role": 2416,
      "nResponse": 2417,
      "Ġpublic": 2418,
      "Ġrece": 2419,
      "Ġmistake": 2420,
      "04": 2421,
      "ips": 2422,
      "Ġinqu": 2423,
      "Ġcontain": 2424,
      "Ġknown": 2425,
      "2022": 2426,
      "lang": 2427,
      "icates": 2428,
      "itive": 2429,
      "ĠJapan": 2430,
      "post": 2431,
      "Ġserver": 2432,
      "Ġchanged": 2433,
      "ĠUse": 2434,
      "ĠAs": 2435,
      "ournament": 2436,
      "Ġplaceholder": 2437,
      "ĠBe": 2438,
      "Ġconsider": 2439,
      "net": 2440,
      "loy": 2441,
      "ĠCl": 2442,
      "oto": 2443,
      "pdf": 2444,
      "Ġown": 2445,
      "Ġeither": 2446,
      "pecific": 2447,
      "Ġstraightforward": 2448,
      "ĠTh": 2449,
      "ario": 2450,
      "Ġauthor": 2451,
      "like": 2452,
      "Ġbreak": 2453,
      "SLA": 2454,
      "Ġcommun": 2455,
      "ites": 2456,
      "Curre": 2457,
      "of": 2458,
      "Ġ/": 2459,
      "Ġbalance": 2460,
      "64": 2461,
      "month": 2462,
      "Ġfull": 2463,
      "order": 2464,
      "andom": 2465,
      "meric": 2466,
      "aces": 2467,
      "Ġyears": 2468,
      "folder": 2469,
      "Ġreality": 2470,
      "Ġaren": 2471,
      "tific": 2472,
      "Ġaccept": 2473,
      "ific": 2474,
      "Ġrecords": 2475,
      "DE": 2476,
      "uming": 2477,
      "Ġsuggestions": 2478,
      "06": 2479,
      "100": 2480,
      "related": 2481,
      "bre": 2482,
      "Ġsend": 2483,
      "log": 2484,
      "Ġincluded": 2485,
      "Ġversion": 2486,
      "rac": 2487,
      "price": 2488,
      "Ġinquiry": 2489,
      "Optional": 2490,
      "Ġpassword": 2491,
      "Ġstrateg": 2492,
      "Ġ2021": 2493,
      "ĠAc": 2494,
      "Ġmakes": 2495,
      "87": 2496,
      "Ġlisting": 2497,
      "artist": 2498,
      "Ġdaily": 2499,
      ".\\\",": 2500,
      "Ġallow": 2501,
      "jpg": 2502,
      "reque": 2503,
      "nch": 2504,
      "Ġdig": 2505,
      "ĠTV": 2506,
      "week": 2507,
      "Ġlongitude": 2508,
      "au": 2509,
      "nCheck": 2510,
      "Ġlocal": 2511,
      "Ġretrieving": 2512,
      "acts": 2513,
      "ĠFra": 2514,
      "ĠGoogle": 2515,
      "ĠLook": 2516,
      "31": 2517,
      "ĠEthereum": 2518,
      "Ġ2026": 2519,
      "Ġbit": 2520,
      "ĠMy": 2521,
      "venue": 2522,
      "Ġtesting": 2523,
      "Ġprompt": 2524,
      "Ġcustomer": 2525,
      "Ġprostring": 2526,
      "Ġthan": 2527,
      "ĠAdd": 2528,
      "Ġtell": 2529,
      "Ġraises": 2530,
      "ĠVal": 2531,
      "Info": 2532,
      "Ġrisk": 2533,
      "You": 2534,
      "Ġtry": 2535,
      "attern": 2536,
      "Ġoffer": 2537,
      "Ġgas": 2538,
      "ling": 2539,
      "term": 2540,
      "ens": 2541,
      "aster": 2542,
      "Key": 2543,
      "Ġvis": 2544,
      "ĠCommunicates": 2545,
      "Ġfocus": 2546,
      "chedule": 2547,
      "Country": 2548,
      "ĠTwitter": 2549,
      "iew": 2550,
      "ST": 2551,
      "Ġ12345": 2552,
      "ĠSer": 2553,
      "gram": 2554,
      "velo": 2555,
      "acy": 2556,
      "Ġvehicle": 2557,
      "Ġmethod": 2558,
      "ĠName": 2559,
      "Ġalong": 2560,
      "Ġearlier": 2561,
      "User": 2562,
      "rid": 2563,
      "Ġdown": 2564,
      "24": 2565,
      "Ġyes": 2566,
      "Ġatt": 2567,
      "oder": 2568,
      "Ġformatted": 2569,
      "Ġsession": 2570,
      "amples": 2571,
      "IP": 2572,
      "ah": 2573,
      "Ġcurrently": 2574,
      "Ġtypes": 2575,
      "Ġclass": 2576,
      "50": 2577,
      "We": 2578,
      "\\\\": 2579,
      "Ġind": 2580,
      "Ġlatitude": 2581,
      "``": 2582,
      "ger": 2583,
      "cket": 2584,
      "ĠTo": 2585,
      "Ġexper": 2586,
      "Ġ2025": 2587,
      "Ġfood": 2588,
      "asht": 2589,
      "essages": 2590,
      "ĠEUR": 2591,
      "ights": 2592,
      "Ġscen": 2593,
      "mo": 2594,
      "Ġsetup": 2595,
      "Ġsense": 2596,
      "py": 2597,
      "perature": 2598,
      "Ġweather": 2599,
      "ntiment": 2600,
      "hentic": 2601,
      "reat": 2602,
      "ĠCity": 2603,
      "ĠCountry": 2604,
      "ada": 2605,
      "Ġquotes": 2606,
      "ĠIts": 2607,
      "medi": 2608,
      "='": 2609,
      "Ġexist": 2610,
      "13": 2611,
      "2021": 2612,
      "Ġranking": 2613,
      "Ġposition": 2614,
      "rive": 2615,
      "ĠCol": 2616,
      "ret": 2617,
      "respon": 2618,
      "uri": 2619,
      "Ġsongs": 2620,
      "AS": 2621,
      "rate": 2622,
      "err": 2623,
      "Ġstarting": 2624,
      "Ġimp": 2625,
      "Qu": 2626,
      "ĠKey": 2627,
      "Specify": 2628,
      "const": 2629,
      "Ġapp": 2630,
      "Ġexactly": 2631,
      "market": 2632,
      "Ġsm": 2633,
      "ans": 2634,
      "Ġgave": 2635,
      "just": 2636,
      "wh": 2637,
      "Ġbasketball": 2638,
      "Ġresearch": 2639,
      "Ġcharacter": 2640,
      "ouse": 2641,
      "rending": 2642,
      "nergy": 2643,
      "lat": 2644,
      "Ġslug": 2645,
      "Ġwhether": 2646,
      "reen": 2647,
      "Ġcities": 2648,
      "ingredient": 2649,
      "idth": 2650,
      "ĠJohn": 2651,
      "Ġregions": 2652,
      "Ġtimes": 2653,
      "els": 2654,
      "Ġed": 2655,
      "clu": 2656,
      "ĠTrans": 2657,
      "Ġactive": 2658,
      "centage": 2659,
      "hed": 2660,
      "icro": 2661,
      "ĠHe": 2662,
      "Ġfree": 2663,
      "Ġstream": 2664,
      "ĠAI": 2665,
      "ĠLink": 2666,
      "Ġlocations": 2667,
      "Ġiss": 2668,
      "iles": 2669,
      "}]}}]\"},": 2670,
      "phone": 2671,
      "2024": 2672,
      "cise": 2673,
      "nual": 2674,
      "Ġtag": 2675,
      "ĠPrices": 2676,
      "edia": 2677,
      "Ġterms": 2678,
      "ĠImage": 2679,
      "Ġphr": 2680,
      "mon": 2681,
      "lue": 2682,
      "pose": 2683,
      "Ġcost": 2684,
      "path": 2685,
      "Ġsuccess": 2686,
      "Calcul": 2687,
      "NS": 2688,
      "mal": 2689,
      "pli": 2690,
      "ĠVAT": 2691,
      "Ġread": 2692,
      "Ġcorrespon": 2693,
      "DA": 2694,
      "upported": 2695,
      "Ġsources": 2696,
      "ongitude": 2697,
      "18": 2698,
      "jects": 2699,
      "nts": 2700,
      "ys": 2701,
      "stock": 2702,
      "ĠEvent": 2703,
      "Ġaddresses": 2704,
      "abilities": 2705,
      "ĠTesla": 2706,
      "Ph": 2707,
      "Ġelse": 2708,
      "ining": 2709,
      "Ġrecogn": 2710,
      "ĠGermany": 2711,
      "Ġ&": 2712,
      "riendly": 2713,
      "ĠGener": 2714,
      "sub": 2715,
      "Ġens": 2716,
      "Ġsentiment": 2717,
      "amily": 2718,
      "vidend": 2719,
      "ampions": 2720,
      "Ġdesigned": 2721,
      "ptions": 2722,
      "ĠAd": 2723,
      "Ġinteraction": 2724,
      "App": 2725,
      "ane": 2726,
      "Ġsimilar": 2727,
      "Ġconversation": 2728,
      "Ġworld": 2729,
      "Ġindivid": 2730,
      "Ġgrowth": 2731,
      "ĠCount": 2732,
      "Ġarray": 2733,
      "Ġconfus": 2734,
      "last": 2735,
      "ĠSp": 2736,
      "Ġquarter": 2737,
      "ĠJust": 2738,
      "vir": 2739,
      "yy": 2740,
      "Ġstats": 2741,
      "ĠYes": 2742,
      "aurant": 2743,
      "iven": 2744,
      "Ġknowledge": 2745,
      "sing": 2746,
      "Ġhead": 2747,
      "Ġanything": 2748,
      "atures": 2749,
      "Ġbest": 2750,
      "Ġvs": 2751,
      "39": 2752,
      "UID": 2753,
      "Wh": 2754,
      "Ġrecord": 2755,
      "ĠðŁĺ": 2756,
      "Ġtechnical": 2757,
      "value": 2758,
      "Ġfeed": 2759,
      "Page": 2760,
      "ght": 2761,
      "Ġwell": 2762,
      "pend": 2763,
      "Ġfiltering": 2764,
      "author": 2765,
      "Ġplanning": 2766,
      "Des": 2767,
      "quence": 2768,
      "Ġamount": 2769,
      "identi": 2770,
      "top": 2771,
      "new": 2772,
      "Ġsty": 2773,
      "Ġtrading": 2774,
      "allen": 2775,
      "Tra": 2776,
      "ertain": 2777,
      "eterm": 2778,
      "ouble": 2779,
      "Per": 2780,
      "land": 2781,
      "ĠMo": 2782,
      "ustry": 2783,
      "...": 2784,
      "craft": 2785,
      "Ġintern": 2786,
      "league": 2787,
      "Ġcompanies": 2788,
      "ĠAir": 2789,
      "**:\\": 2790,
      "Cl": 2791,
      "pting": 2792,
      "dem": 2793,
      "Ġ\\\\": 2794,
      "ftware": 2795,
      "tination": 2796,
      "TP": 2797,
      "oke": 2798,
      "pass": 2799,
      "ĠHT": 2800,
      "Ġhaven": 2801,
      "Ġokay": 2802,
      "Ġdevice": 2803,
      "Ġgetting": 2804,
      "Ġwor": 2805,
      "Ġht": 2806,
      "tered": 2807,
      "Ġstates": 2808,
      "ĠAmeric": 2809,
      "Ġlocale": 2810,
      "ĠFirst": 2811,
      "What": 2812,
      "uc": 2813,
      "ourse": 2814,
      "cript": 2815,
      "Ġtopic": 2816,
      "ixed": 2817,
      "Ġhashtags": 2818,
      "75": 2819,
      "ĠâĢĵ": 2820,
      "lpha": 2821,
      "Or": 2822,
      "cursor": 2823,
      "atches": 2824,
      "isco": 2825,
      "Ġavailability": 2826,
      "viron": 2827,
      "allenge": 2828,
      "101": 2829,
      "ĠMarket": 2830,
      "locale": 2831,
      "ones": 2832,
      "Ġpersonal": 2833,
      "based": 2834,
      "Ġenc": 2835,
      "Ġzip": 2836,
      "Ġextract": 2837,
      "ody": 2838,
      "ms": 2839,
      "ĠCurre": 2840,
      "ularity": 2841,
      "dio": 2842,
      "product": 2843,
      "Ġmov": 2844,
      "main": 2845,
      "Ġservices": 2846,
      "Ġapplic": 2847,
      "ula": 2848,
      "ĠLooking": 2849,
      "na": 2850,
      "Ġbeing": 2851,
      "Ġlikely": 2852,
      "lections": 2853,
      "valu": 2854,
      "Ġmovies": 2855,
      "Ġcampaign": 2856,
      "ought": 2857,
      "round": 2858,
      "Ġvolume": 2859,
      "place": 2860,
      "Ġaccur": 2861,
      "illboard": 2862,
      "Ġpriv": 2863,
      "requency": 2864,
      "conomic": 2865,
      "Details": 2866,
      "vered": 2867,
      "Ġkeywords": 2868,
      ".\\\"\\": 2869,
      "Ġsignific": 2870,
      "SE": 2871,
      "Ġvers": 2872,
      "alend": 2873,
      "fect": 2874,
      "times": 2875,
      "pically": 2876,
      "actions": 2877,
      "mp": 2878,
      "asure": 2879,
      "Ġrequests": 2880,
      "Add": 2881,
      "Ġla": 2882,
      "Ġhig": 2883,
      "Ġapply": 2884,
      "Ġmove": 2885,
      "ĠPrice": 2886,
      "Ġglobal": 2887,
      "Ġauthentic": 2888,
      "Ġspecies": 2889,
      "Ġsummary": 2890,
      "14": 2891,
      "Pri": 2892,
      "vels": 2893,
      "Ġrun": 2894,
      "Ġclearly": 2895,
      "olution": 2896,
      "Ġnon": 2897,
      "Ġwords": 2898,
      "sel": 2899,
      "cip": 2900,
      "ĠEmail": 2901,
      "uel": 2902,
      "Ġmany": 2903,
      "ĠEurope": 2904,
      "Ġgroup": 2905,
      "ĠMet": 2906,
      "Ġ25": 2907,
      "ai": 2908,
      "nThen": 2909,
      "lation": 2910,
      "oring": 2911,
      "ĠLi": 2912,
      "exchange": 2913,
      "Ġairport": 2914,
      "Ġhashtag": 2915,
      "Ġsong": 2916,
      "parated": 2917,
      "nNow": 2918,
      "link": 2919,
      "outh": 2920,
      "item": 2921,
      "ĠAut": 2922,
      "Ġpredic": 2923,
      "Ġaccordingly": 2924,
      "Ġblockchain": 2925,
      "ĠCO": 2926,
      "plate": 2927,
      "Ġmetrics": 2928,
      "Ġhum": 2929,
      "ĠNBA": 2930,
      "Ġlow": 2931,
      "Ġclari": 2932,
      "Ġprompting": 2933,
      "umer": 2934,
      "output": 2935,
      "ĠAM": 2936,
      "verse": 2937,
      "ĠReg": 2938,
      "ĠLookup": 2939,
      "lose": 2940,
      "Ġscores": 2941,
      "Ġlear": 2942,
      "Ġrou": 2943,
      "Ġdataset": 2944,
      "Generate": 2945,
      "vironment": 2946,
      "55": 2947,
      "Co": 2948,
      "ĠWould": 2949,
      "offset": 2950,
      "Ġpay": 2951,
      "ĠTok": 2952,
      "Ġmaking": 2953,
      "Ġrobot": 2954,
      "ĠTokyo": 2955,
      "ced": 2956,
      "Ġaud": 2957,
      "ĠSE": 2958,
      "Ġimport": 2959,
      "Ġsteps": 2960,
      "Ġrecei": 2961,
      "ĠNFT": 2962,
      "omplete": 2963,
      "base": 2964,
      "ators": 2965,
      "ished": 2966,
      "22": 2967,
      "mier": 2968,
      "sp": 2969,
      "Ġest": 2970,
      "ĠFootball": 2971,
      "rint": 2972,
      "Ġmessages": 2973,
      "Ġincome": 2974,
      "Ġunit": 2975,
      "alendar": 2976,
      "cy": 2977,
      "eds": 2978,
      "tery": 2979,
      "nAlso": 2980,
      "oice": 2981,
      "ilding": 2982,
      "allet": 2983,
      "Ġunderstand": 2984,
      "Ġ200": 2985,
      "NA": 2986,
      "ali": 2987,
      "separated": 2988,
      "lore": 2989,
      "Ġcharacters": 2990,
      "ĠCategories": 2991,
      "pop": 2992,
      "ditions": 2993,
      "otel": 2994,
      "inte": 2995,
      "Ġwait": 2996,
      "Ġoper": 2997,
      "Ġstrict": 2998,
      "Ġhttps": 2999,
      "nSe": 3000,
      "Ġcouldn": 3001,
      "ĠArtist": 3002,
      "Ġreviews": 3003,
      "Ġindividual": 3004,
      "anu": 3005,
      "apter": 3006,
      "Ġscenario": 3007,
      "ĠWh": 3008,
      "2026": 3009,
      "Ġcame": 3010,
      "irection": 3011,
      "den": 3012,
      "ĠBTC": 3013,
      "Ġmarkets": 3014,
      "Ġweekly": 3015,
      "oy": 3016,
      "Ġdete": 3017,
      "ĠHigh": 3018,
      "ntial": 3019,
      "Ġmetadata": 3020,
      "ĠETF": 3021,
      "ĠðŁĺĬ": 3022,
      "ses": 3023,
      "til": 3024,
      "Ġincre": 3025,
      "Ġnamed": 3026,
      "Ġgenerated": 3027,
      "Ġstandings": 3028,
      "Ġcontact": 3029,
      "99": 3030,
      "Ġcannot": 3031,
      "Ġrequested": 3032,
      "currencies": 3033,
      "ĠURLs": 3034,
      "YZ": 3035,
      "my": 3036,
      "no": 3037,
      "Ġke": 3038,
      "Ġcursor": 3039,
      "Ġvia": 3040,
      "Language": 3041,
      "Ġevery": 3042,
      "Ġhome": 3043,
      "ĠRandom": 3044,
      "panish": 3045,
      "current": 3046,
      "Ġpreviously": 3047,
      "Ġplatforms": 3048,
      "ways": 3049,
      "aper": 3050,
      "}\\": 3051,
      "app": 3052,
      "Ġfilters": 3053,
      "pliance": 3054,
      "'.\",": 3055,
      "ĠAf": 3056,
      "GB": 3057,
      "rench": 3058,
      "Ġpages": 3059,
      "aging": 3060,
      "Ġcomments": 3061,
      "}}},": 3062,
      "\"]}},": 3063,
      "tournament": 3064,
      "Ġrefer": 3065,
      "Ġconversion": 3066,
      "Ġquote": 3067,
      "chedul": 3068,
      "ression": 3069,
      "ATA": 3070,
      "Ġerr": 3071,
      "Ġminutes": 3072,
      "Ġconne": 3073,
      "ES": 3074,
      "Ġfound": 3075,
      "Ġdue": 3076,
      "Ġline": 3077,
      "Ġdel": 3078,
      "ship": 3079,
      "Ġretrieved": 3080,
      "Ġcare": 3081,
      "API": 3082,
      "gra": 3083,
      "specific": 3084,
      "Ġaverage": 3085,
      "ncisco": 3086,
      "Ġwhile": 3087,
      "atory": 3088,
      "Ġfac": 3089,
      "Ġprac": 3090,
      "Ġeffe": 3091,
      "Ġresources": 3092,
      "avor": 3093,
      "Hey": 3094,
      "orning": 3095,
      "unch": 3096,
      "IC": 3097,
      "tual": 3098,
      "Ġduring": 3099,
      "ĠBillboard": 3100,
      "Ġ18": 3101,
      "Ġdeterm": 3102,
      "Ġexpecting": 3103,
      "ava": 3104,
      "oms": 3105,
      "Ġgra": 3106,
      "lon": 3107,
      "Ġtax": 3108,
      "Ġacross": 3109,
      "Ġinstruction": 3110,
      "Ġschedules": 3111,
      "go": 3112,
      "Ġunless": 3113,
      "down": 3114,
      "info": 3115,
      "Ġdesired": 3116,
      "ficul": 3117,
      "ances": 3118,
      "ondon": 3119,
      "ĠSim": 3120,
      "2025": 3121,
      "Ġfiltered": 3122,
      "letter": 3123,
      "ĠState": 3124,
      "Ġschool": 3125,
      "Ġfl": 3126,
      "Ġodds": 3127,
      "ĠDoe": 3128,
      "resh": 3129,
      "osp": 3130,
      "Currency": 3131,
      "eth": 3132,
      "ĠLive": 3133,
      "Ġlocated": 3134,
      "anges": 3135,
      "Ġtasks": 3136,
      "token": 3137,
      "ponent": 3138,
      "ocuments": 3139,
      "Ġquestions": 3140,
      "player": 3141,
      "ficulty": 3142,
      "IF": 3143,
      "ee": 3144,
      "over": 3145,
      "Ġthings": 3146,
      "nG": 3147,
      "ium": 3148,
      "hether": 3149,
      "redit": 3150,
      "pir": 3151,
      "anti": 3152,
      "Ġexamples": 3153,
      "Ġcovered": 3154,
      "ficial": 3155,
      "Ġflight": 3156,
      "Ġlength": 3157,
      "Ġforecast": 3158,
      "CR": 3159,
      "target": 3160,
      "ĠCanada": 3161,
      "Download": 3162,
      "Ġingredient": 3163,
      "otor": 3164,
      "Ġothers": 3165,
      "Team": 3166,
      "icit": 3167,
      "Ġgi": 3168,
      "Ġcurrencies": 3169,
      "Ġplaylist": 3170,
      "Top": 3171,
      "ĠPlay": 3172,
      "Ad": 3173,
      "ster": 3174,
      "care": 3175,
      "ĠUs": 3176,
      "ĠEar": 3177,
      "ticular": 3178,
      "box": 3179,
      "Ġassistance": 3180,
      "Ġphrase": 3181,
      "Ġcompeti": 3182,
      "Ġmob": 3183,
      "present": 3184,
      "Ġspecial": 3185,
      "ml": 3186,
      "keting": 3187,
      "Ġlists": 3188,
      "enn": 3189,
      "Ġcloud": 3190,
      "Ġfeel": 3191,
      "nov": 3192,
      "source": 3193,
      "\\\"],": 3194,
      "Ġtypically": 3195,
      "priate": 3196,
      "Pre": 3197,
      "Ġmonthly": 3198,
      "sm": 3199,
      "inance": 3200,
      "ĠDo": 3201,
      "Ġdevelo": 3202,
      "iency": 3203,
      "Ġindicating": 3204,
      "Ġapplication": 3205,
      "Ġfuture": 3206,
      "ĠSupported": 3207,
      "Ġtracking": 3208,
      "Ġsales": 3209,
      "ĠBusiness": 3210,
      "ustomer": 3211,
      "iv": 3212,
      "Ġcomma": 3213,
      "position": 3214,
      "ĠFrancisco": 3215,
      "status": 3216,
      "Ġbro": 3217,
      "geles": 3218,
      "vailable": 3219,
      "ĠRec": 3220,
      "Ġentries": 3221,
      "ographic": 3222,
      "Ġcult": 3223,
      "Ġnear": 3224,
      "ĠCA": 3225,
      "ĠPer": 3226,
      "Ġtravel": 3227,
      "Ġseasons": 3228,
      "Convert": 3229,
      "mediate": 3230,
      "34": 3231,
      "Inter": 3232,
      "reet": 3233,
      "Ġmar": 3234,
      "formance": 3235,
      "company": 3236,
      "Ġappropriate": 3237,
      "Ġtechnology": 3238,
      "Ġstored": 3239,
      "ollow": 3240,
      "Ġide": 3241,
      "ĠUTC": 3242,
      "Ġlib": 3243,
      "\\\"}.\\": 3244,
      "ĠUUID": 3245,
      "Ġleave": 3246,
      "ĠAnalysis": 3247,
      "AR": 3248,
      "Ind": 3249,
      "ĠPo": 3250,
      "nIf": 3251,
      "Status": 3252,
      "Aut": 3253,
      "He": 3254,
      "sc": 3255,
      "ĠAss": 3256,
      "Ġhad": 3257,
      "Ġconverted": 3258,
      "Ġensure": 3259,
      "nia": 3260,
      "ĠAngeles": 3261,
      "gin": 3262,
      "umb": 3263,
      "Ġcomb": 3264,
      "Ġpote": 3265,
      "Ġ500": 3266,
      "ders": 3267,
      "nNext": 3268,
      "Ġport": 3269,
      "come": 3270,
      "bit": 3271,
      "Ġtick": 3272,
      "org": 3273,
      "att": 3274,
      "Image": 3275,
      "pis": 3276,
      "ager": 3277,
      "ibility": 3278,
      "Ġsignificant": 3279,
      "Ġ\"/": 3280,
      "ntal": 3281,
      "Ġhy": 3282,
      "ĠTSLA": 3283,
      "ĠDate": 3284,
      "Ġeth": 3285,
      "Ġlimited": 3286,
      "End": 3287,
      "nM": 3288,
      "ĠMan": 3289,
      "ferences": 3290,
      "Ġtopics": 3291,
      "Ġfixed": 3292,
      "track": 3293,
      "Ġadjust": 3294,
      "anced": 3295,
      "Ġapplicable": 3296,
      "Here": 3297,
      "dat": 3298,
      "ese": 3299,
      "ĠPM": 3300,
      "Ġcreated": 3301,
      "Ġcapabilities": 3302,
      "Size": 3303,
      "hab": 3304,
      "option": 3305,
      "met": 3306,
      "ĠLatest": 3307,
      "Ġimpact": 3308,
      "orrow": 3309,
      "atur": 3310,
      "Ġofficial": 3311,
      "ĠDNS": 3312,
      "Ġpercentage": 3313,
      "Ġparti": 3314,
      "ĠWeb": 3315,
      "Ġforex": 3316,
      "67": 3317,
      "All": 3318,
      "Ġ14": 3319,
      "ĠStatus": 3320,
      "Ġworking": 3321,
      "Email": 3322,
      "Ġdri": 3323,
      "Ġanime": 3324,
      "ocomplete": 3325,
      "Ġchecks": 3326,
      "Ġpolicy": 3327,
      "Ġexplicit": 3328,
      "FL": 3329,
      "Whether": 3330,
      "fl": 3331,
      "gor": 3332,
      "jor": 3333,
      "zz": 3334,
      "Ġwatch": 3335,
      "Ġparticular": 3336,
      "ered": 3337,
      "nW": 3338,
      "etches": 3339,
      "fornia": 3340,
      "Ġdistance": 3341,
      "alifornia": 3342,
      "Ġfollowers": 3343,
      "Ġchanges": 3344,
      "Ġorganization": 3345,
      "gorith": 3346,
      "ny": 3347,
      "pect": 3348,
      "Ġtournaments": 3349,
      "ober": 3350,
      "Ġ<": 3351,
      "edIn": 3352,
      "thqu": 3353,
      "Ġcontract": 3354,
      "Ġexists": 3355,
      "gal": 3356,
      "json": 3357,
      "raw": 3358,
      "Ġpostal": 3359,
      "Ġartists": 3360,
      "hes": 3361,
      "ĠWorld": 3362,
      "Ġdividend": 3363,
      "Ġkeep": 3364,
      "asy": 3365,
      "Ġresource": 3366,
      "Ġexplan": 3367,
      "ashtag": 3368,
      "HL": 3369,
      "bed": 3370,
      "stance": 3371,
      "Ġ17": 3372,
      "ĠUK": 3373,
      "Ġmax": 3374,
      "Text": 3375,
      "Ġmeans": 3376,
      "ĨĴ": 3377,
      "Ġau": 3378,
      "Ġheight": 3379,
      "Ġarticle": 3380,
      "Annot": 3381,
      "Ġrecipe": 3382,
      "**.": 3383,
      "Ġratings": 3384,
      "Sh": 3385,
      "ĠFrench": 3386,
      "Ġtemperature": 3387,
      "file": 3388,
      "tional": 3389,
      "which": 3390,
      "Ġredu": 3391,
      "rank": 3392,
      "\"],": 3393,
      "doe": 3394,
      "ĠNor": 3395,
      "nSince": 3396,
      "ĠForm": 3397,
      "Ġmonths": 3398,
      "Ġauthentication": 3399,
      "Ġenergy": 3400,
      "Ġthird": 3401,
      "ĠDownload": 3402,
      "Ġactivity": 3403,
      "ĠProduct": 3404,
      "ĠðŁĺĬ\"}],": 3405,
      "SIN": 3406,
      "Ġusually": 3407,
      "Ġlot": 3408,
      "ills": 3409,
      "ĠâĨĴ": 3410,
      "Ġwri": 3411,
      "Ġele": 3412,
      "Ġalbum": 3413,
      "Ġindustry": 3414,
      "Ġstyle": 3415,
      "):": 3416,
      "ped": 3417,
      "Ġlab": 3418,
      "ĠSports": 3419,
      "Ġhash": 3420,
      "nE": 3421,
      "ĠMedia": 3422,
      "Reg": 3423,
      "ople": 3424,
      "arge": 3425,
      "Ġfactors": 3426,
      "nGiven": 3427,
      "AC": 3428,
      "Document": 3429,
      "Ġsequence": 3430,
      "Ġship": 3431,
      "match": 3432,
      "Ġclimate": 3433,
      "Ġlinks": 3434,
      "Ġannotation": 3435,
      "Ġwin": 3436,
      "roups": 3437,
      "Ġcricket": 3438,
      "Ma": 3439,
      "cing": 3440,
      "uss": 3441,
      "teria": 3442,
      "Ġenti": 3443,
      "ĠMon": 3444,
      "nHere": 3445,
      "model": 3446,
      "Ġcontaining": 3447,
      "password": 3448,
      "af": 3449,
      "itle": 3450,
      "Format": 3451,
      "No": 3452,
      "Ġduration": 3453,
      "ĠSan": 3454,
      "ĠCrypto": 3455,
      "amount": 3456,
      "Ġ**\\\"": 3457,
      "ĠOpen": 3458,
      "Ġtwe": 3459,
      "Ġknowing": 3460,
      "Ġaccurate": 3461,
      ".\"}],": 3462,
      "ĠUp": 3463,
      "Project": 3464,
      "89": 3465,
      "field": 3466,
      "rength": 3467,
      "erial": 3468,
      "vey": 3469,
      "ury": 3470,
      "urance": 3471,
      "oding": 3472,
      "test": 3473,
      "ots": 3474,
      "ader": 3475,
      "Ġlistings": 3476,
      "27": 3477,
      "60": 3478,
      "Ġmis": 3479,
      "uly": 3480,
      "Report": 3481,
      "Ġestim": 3482,
      "Ġtech": 3483,
      "ched": 3484,
      "ibrary": 3485,
      "28": 3486,
      "ĠLocation": 3487,
      "next": 3488,
      "aries": 3489,
      "ĠStatistics": 3490,
      "ccer": 3491,
      "arm": 3492,
      "items": 3493,
      "ĠSpanish": 3494,
      "utual": 3495,
      "Ġupdates": 3496,
      "ĠVe": 3497,
      "Ġcover": 3498,
      "cap": 3499,
      "ox": 3500,
      "Ġgen": 3501,
      "ĠVIN": 3502,
      "ĠCoin": 3503,
      "ennis": 3504,
      "FC": 3505,
      "Ġcent": 3506,
      "ĠMake": 3507,
      "Ġavoid": 3508,
      "Ġprogram": 3509,
      "news": 3510,
      "Ġanalyz": 3511,
      "ribu": 3512,
      "ĠLinkedIn": 3513,
      "cure": 3514,
      "ĠSymbol": 3515,
      "ĠDay": 3516,
      "Ġenum": 3517,
      "ĠUsername": 3518,
      "ummary": 3519,
      "IS": 3520,
      "fit": 3521,
      "nded": 3522,
      "ulf": 3523,
      "changes": 3524,
      "Ġinsights": 3525,
      "Ġfavor": 3526,
      "ctober": 3527,
      "Ġsubs": 3528,
      "ounds": 3529,
      "Ġregistration": 3530,
      "Ġcorresponding": 3531,
      "BTC": 3532,
      "here": 3533,
      "Ġca": 3534,
      "Ġcertain": 3535,
      "okes": 3536,
      "Ġrecipes": 3537,
      "Ġpower": 3538,
      "Ġopen": 3539,
      "genre": 3540,
      "ables": 3541,
      "ams": 3542,
      "ĠMatch": 3543,
      "tify": 3544,
      "Ġreports": 3545,
      "lub": 3546,
      "Ġspeed": 3547,
      "SV": 3548,
      "vailability": 3549,
      "Ġprivate": 3550,
      "arri": 3551,
      "Ġsear": 3552,
      "Ġcapital": 3553,
      "details": 3554,
      "fier": 3555,
      "ivers": 3556,
      "Ġhelpful": 3557,
      "Ġspecifying": 3558,
      "Ġrecognize": 3559,
      "Ġvol": 3560,
      "une": 3561,
      "####": 3562,
      "ASDA": 3563,
      "Col": 3564,
      "tice": 3565,
      "orting": 3566,
      "udget": 3567,
      "166": 3568,
      "Ġscheduled": 3569,
      "Ġtoo": 3570,
      "chnology": 3571,
      "ASDAQ": 3572,
      "spe": 3573,
      "itor": 3574,
      "Ġannual": 3575,
      "Ġassess": 3576,
      "Ġlibrary": 3577,
      "90": 3578,
      "ABC": 3579,
      "aking": 3580,
      "Ġcourse": 3581,
      "Ġflow": 3582,
      "cience": 3583,
      "ĠHTML": 3584,
      "sApp": 3585,
      "Ġclient": 3586,
      "anks": 3587,
      "esti": 3588,
      "Ġreason": 3589,
      "Ġrepresent": 3590,
      "Ġdeli": 3591,
      "Ġtransaction": 3592,
      "Ġinvestment": 3593,
      "Ġrankings": 3594,
      "anuary": 3595,
      "Ġwhy": 3596,
      "Ġextra": 3597,
      "Ġeduc": 3598,
      ".).\",": 3599,
      "nThis": 3600,
      "olid": 3601,
      "Ġlevels": 3602,
      "Ġdisc": 3603,
      "Ġcontrol": 3604,
      "fficiency": 3605,
      "JSON": 3606,
      "patient": 3607,
      "vation": 3608,
      "Ġelect": 3609,
      "Ġtimezone": 3610,
      "Ġassets": 3611,
      "Ġpopulation": 3612,
      "Ġearnings": 3613,
      "Ġlookup": 3614,
      "XYZ": 3615,
      "Ġfew": 3616,
      "ĠIATA": 3617,
      "Ġgain": 3618,
      "ĠExchange": 3619,
      "Ġminimum": 3620,
      "ĠIndex": 3621,
      "Ġcriteria": 3622,
      ".\"}},": 3623,
      "PS": 3624,
      "filter": 3625,
      "ina": 3626,
      "Ġtranslation": 3627,
      "identifier": 3628,
      "Ġhigher": 3629,
      "John": 3630,
      "SS": 3631,
      "topic": 3632,
      "ĠMatches": 3633,
      "Ġconditions": 3634,
      "Provides": 3635,
      "Ġpurch": 3636,
      "Ġpeople": 3637,
      "gener": 3638,
      "ĠFore": 3639,
      "ands": 3640,
      "ĠWhatsApp": 3641,
      "ĠETH": 3642,
      "Ġstrategies": 3643,
      "36": 3644,
      "Market": 3645,
      "Ġthought": 3646,
      "ership": 3647,
      "Ġaround": 3648,
      "arks": 3649,
      "nHmm": 3650,
      "ĠPremier": 3651,
      "Ġmobile": 3652,
      "Ġ16": 3653,
      "ified": 3654,
      "Ġrank": 3655,
      "Ġpurpose": 3656,
      "yn": 3657,
      "imal": 3658,
      "Ġoffset": 3659,
      "Ġannotations": 3660,
      "brevi": 3661,
      "Ġissues": 3662,
      "ons": 3663,
      "verti": 3664,
      "Ġview": 3665,
      "ler": 3666,
      "Ġeconomic": 3667,
      "ĠFund": 3668,
      "active": 3669,
      "Ġrating": 3670,
      "ĠProstring": 3671,
      "oston": 3672,
      "Ġadv": 3673,
      "Ġ|\\": 3674,
      "atic": 3675,
      "full": 3676,
      "agn": 3677,
      "xtra": 3678,
      "ockey": 3679,
      "Start": 3680,
      "Ġenvironment": 3681,
      "retrieve": 3682,
      "')\",": 3683,
      "ulated": 3684,
      "ĠCap": 3685,
      "ĠReci": 3686,
      "Ġpotential": 3687,
      "ean": 3688,
      "array": 3689,
      "ĠInter": 3690,
      "project": 3691,
      "Ġexe": 3692,
      "ored": 3693,
      "Ġchoice": 3694,
      "dius": 3695,
      "Ġphoto": 3696,
      "Ġcalculation": 3697,
      "Ġoptim": 3698,
      "CO": 3699,
      "aid": 3700,
      "uuid": 3701,
      "Ġfriendly": 3702,
      "Ġmeasure": 3703,
      "Ġcompare": 3704,
      "soft": 3705,
      "17": 3706,
      "So": 3707,
      "bu": 3708,
      "iter": 3709,
      "Ġevalu": 3710,
      "Ġprote": 3711,
      "isk": 3712,
      "Ġmedic": 3713,
      "rug": 3714,
      "Ġcollections": 3715,
      "Ġdraw": 3716,
      "ints": 3717,
      "Ġmanagement": 3718,
      "Ġmodels": 3719,
      "Ġstrong": 3720,
      "Cre": 3721,
      "FF": 3722,
      "Ġpack": 3723,
      "Ġlower": 3724,
      "Ġonline": 3725,
      "ĠInfo": 3726,
      "cope": 3727,
      "otorcy": 3728,
      "RE": 3729,
      "itation": 3730,
      "ĠHistory": 3731,
      "ĠNY": 3732,
      "ĠRates": 3733,
      "aris": 3734,
      "weet": 3735,
      "icrosoft": 3736,
      "tournamentId": 3737,
      "aturday": 3738,
      "nWould": 3739,
      "ji": 3740,
      "channel": 3741,
      "Ġroom": 3742,
      "Ġoffers": 3743,
      "Ġequity": 3744,
      "vin": 3745,
      "Ġfit": 3746,
      "gen": 3747,
      "ĠSm": 3748,
      "ventory": 3749,
      "illion": 3750,
      "Ġsystems": 3751,
      "Ġsignal": 3752,
      "luenc": 3753,
      "high": 3754,
      "potify": 3755,
      "ighting": 3756,
      "Ver": 3757,
      "schedule": 3758,
      "ĠRed": 3759,
      "ĠValid": 3760,
      "Ġtrying": 3761,
      "Trans": 3762,
      "ell": 3763,
      "tine": 3764,
      "vening": 3765,
      "ĠSu": 3766,
      "bsites": 3767,
      "ĠCont": 3768,
      "Ġlogin": 3769,
      "EUR": 3770,
      "latitude": 3771,
      "Ġprefer": 3772,
      "ashion": 3773,
      "Ġinvol": 3774,
      "estival": 3775,
      "correct": 3776,
      "oney": 3777,
      "ĠKe": 3778,
      "ĠAlright": 3779,
      "Ġexplanation": 3780,
      "OG": 3781,
      "Ġmon": 3782,
      "Ġsever": 3783,
      "Ġhap": 3784,
      "Ġinteg": 3785,
      "Ġseconds": 3786,
      "sty": 3787,
      "ĠAnd": 3788,
      "codes": 3789,
      "points": 3790,
      "Ġtitles": 3791,
      "vision": 3792,
      "ĠEvents": 3793,
      "Ġpredictions": 3794,
      "49": 3795,
      "File": 3796,
      "gence": 3797,
      "ĠDE": 3798,
      "ense": 3799,
      "interest": 3800,
      "since": 3801,
      "Ġapps": 3802,
      "Ġprior": 3803,
      "Ġoptionally": 3804,
      "ĠPlayer": 3805,
      "Ġexplore": 3806,
      "ditional": 3807,
      "Ġsentence": 3808,
      "nSecond": 3809,
      "Maximum": 3810,
      "house": 3811,
      "tag": 3812,
      "Ġwallet": 3813,
      "Ġareas": 3814,
      "Ġcomple": 3815,
      "ĠJanuary": 3816,
      "Ġstick": 3817,
      "uis": 3818,
      "Ġsoccer": 3819,
      "Ġdem": 3820,
      "ĠNone": 3821,
      "Ġdestination": 3822,
      "ĠFormat": 3823,
      "views": 3824,
      "ĠSeason": 3825,
      "ĠAddress": 3826,
      "Ġlearning": 3827,
      "pare": 3828,
      "member": 3829,
      "length": 3830,
      "Ġsens": 3831,
      "uality": 3832,
      "ĠUSA": 3833,
      "ampion": 3834,
      "tenance": 3835,
      "Ġchain": 3836,
      "ustain": 3837,
      "Valistring": 3838,
      "Ġmarketing": 3839,
      "\\\",\\": 3840,
      "Ġ11": 3841,
      "Ġcryptocurrencies": 3842,
      "ĠFormula": 3843,
      "asc": 3844,
      "asic": 3845,
      "Ġ13": 3846,
      "achine": 3847,
      "Ġassuming": 3848,
      ":**\\": 3849,
      "ntertain": 3850,
      "alleng": 3851,
      "Ġconfusing": 3852,
      "Min": 3853,
      "gress": 3854,
      "hem": 3855,
      "eries": 3856,
      "Ġimpro": 3857,
      "Ġscan": 3858,
      "ĠExample": 3859,
      "ĠtournamentId": 3860,
      "Ġrestaurant": 3861,
      "XX": 3862,
      "Ġpattern": 3863,
      "Ġmember": 3864,
      "area": 3865,
      "Ġinitially": 3866,
      "ND": 3867,
      "longitude": 3868,
      "tp": 3869,
      "trans": 3870,
      "with": 3871,
      "Ġproper": 3872,
      "raz": 3873,
      "Ġmajor": 3874,
      "Ġpositive": 3875,
      "Ġtrip": 3876,
      "ĠFinance": 3877,
      "do": 3878,
      "tconst": 3879,
      "Ġtips": 3880,
      "otal": 3881,
      "ift": 3882,
      "Ġsearching": 3883,
      "ĠVis": 3884,
      "Ġsubmit": 3885,
      "Ġimportant": 3886,
      "Ġframe": 3887,
      "ques": 3888,
      "nds": 3889,
      "ĠSaturday": 3890,
      "001": 3891,
      "Ġart": 3892,
      "fficient": 3893,
      "Ġtrick": 3894,
      "80": 3895,
      "As": 3896,
      "LE": 3897,
      "Ġsector": 3898,
      "Ġcalling": 3899,
      "ĠFollow": 3900,
      "ducts": 3901,
      "ĠVer": 3902,
      "valid": 3903,
      "ton": 3904,
      "Ġ23": 3905,
      "Ġfrequency": 3906,
      "Ġpress": 3907,
      "oll": 3908,
      "rating": 3909,
      "ĠWord": 3910,
      "Ġmentions": 3911,
      "ookie": 3912,
      "Ġadvice": 3913,
      "antity": 3914,
      "fol": 3915,
      "Ġcat": 3916,
      "iction": 3917,
      "ĠCategory": 3918,
      "ĠLanguages": 3919,
      "ĠLondon": 3920,
      "agues": 3921,
      "ublished": 3922,
      "nMake": 3923,
      ")**:": 3924,
      "?\"}],": 3925,
      "Ac": 3926,
      "ulting": 3927,
      "pecies": 3928,
      "ĠOctober": 3929,
      "Ġdescriptions": 3930,
      "Ġbooks": 3931,
      "Calculates": 3932,
      "Al": 3933,
      "Fetches": 3934,
      "Sp": 3935,
      "ids": 3936,
      "Ġweight": 3937,
      "ĠText": 3938,
      "reatest": 3939,
      "Ġflights": 3940,
      "Ġdepart": 3941,
      "Ġalign": 3942,
      "Ġquarterly": 3943,
      "AX": 3944,
      "xies": 3945,
      "quid": 3946,
      "aming": 3947,
      "plied": 3948,
      "Ġaccounts": 3949,
      "odern": 3950,
      "Ass": 3951,
      "iam": 3952,
      "inal": 3953,
      "ani": 3954,
      "ctors": 3955,
      "Ġstory": 3956,
      "Ġimply": 3957,
      "udent": 3958,
      "Ġdigital": 3959,
      "ground": 3960,
      "achment": 3961,
      "Ġregard": 3962,
      "Ġbox": 3963,
      "Description": 3964,
      "ĠAmerican": 3965,
      "Ġexplicitly": 3966,
      "ĠLos": 3967,
      "http": 3968,
      "ternal": 3969,
      "Limit": 3970,
      "Sto": 3971,
      "home": 3972,
      "ois": 3973,
      "iga": 3974,
      "account": 3975,
      "ĠStand": 3976,
      "Ġidentify": 3977,
      "color": 3978,
      "miss": 3979,
      "su": 3980,
      "quality": 3981,
      "ĠBalance": 3982,
      "Ġcontra": 3983,
      "Ġrati": 3984,
      "Ġdomains": 3985,
      "wer": 3986,
      "\\\"}]}}]\"},": 3987,
      "face": 3988,
      "lling": 3989,
      "plies": 3990,
      "Ġclean": 3991,
      "seasonId": 3992,
      "Ġdepend": 3993,
      "ikes": 3994,
      "Inc": 3995,
      "latest": 3996,
      "names": 3997,
      "side": 3998,
      "Ġtrig": 3999,
      "Ġincorrect": 4000,
      "graph": 4001,
      "Ġalpha": 4002,
      "Ġbi": 4003,
      "tok": 4004,
      "Ġsoftware": 4005,
      "ĠMay": 4006,
      "Ġher": 4007,
      "Ġrefers": 4008,
      "loyee": 4009,
      "Phone": 4010,
      "ĠUsers": 4011,
      "47": 4012,
      "ĠPop": 4013,
      "vities": 4014,
      "nTh": 4015,
      "orn": 4016,
      "Ġfinding": 4017,
      "poses": 4018,
      "\\\"}}]\"},": 4019,
      "Ġproxy": 4020,
      "Ġgender": 4021,
      "Ġcoin": 4022,
      "alyze": 4023,
      "Ġfeatures": 4024,
      "168": 4025,
      "ĠKeep": 4026,
      "print": 4027,
      "Ġintended": 4028,
      "Ġmatching": 4029,
      "ĠDefaults": 4030,
      "Address": 4031,
      "Ur": 4032,
      "nP": 4033,
      "Ġcash": 4034,
      "Ġusage": 4035,
      "ident": 4036,
      "plan": 4037,
      "Ġjson": 4038,
      "ĠJava": 4039,
      "ĠseasonId": 4040,
      "Ġemails": 4041,
      "Ġfeedback": 4042,
      "lic": 4043,
      "lack": 4044,
      "tik": 4045,
      "tivities": 4046,
      "istics": 4047,
      "ĠNFL": 4048,
      "izing": 4049,
      "Ġvolati": 4050,
      "usive": 4051,
      "ĠGe": 4052,
      "Ġasset": 4053,
      "Ġgives": 4054,
      "case": 4055,
      "ynt": 4056,
      "Ġurl": 4057,
      "Ġwater": 4058,
      "ama": 4059,
      "facture": 4060,
      "Ġconse": 4061,
      "Ġwebsites": 4062,
      "oded": 4063,
      "vesting": 4064,
      "ĠCompany": 4065,
      "ĠTwitch": 4066,
      "Sim": 4067,
      "aw": 4068,
      "pattern": 4069,
      "ined": 4070,
      "ĠCall": 4071,
      "pecially": 4072,
      "los": 4073,
      "ĠCountries": 4074,
      "AN": 4075,
      "Air": 4076,
      "Ġcuri": 4077,
      "umption": 4078,
      "via": 4079,
      "Ġtraining": 4080,
      "cord": 4081,
      "lor": 4082,
      "Ġhis": 4083,
      "ĠFood": 4084,
      "Ġpresentation": 4085,
      "lity": 4086,
      "olicy": 4087,
      "ĠCalifornia": 4088,
      "short": 4089,
      "Ġdetermine": 4090,
      "Count": 4091,
      "group": 4092,
      "network": 4093,
      "organ": 4094,
      "ĠTrending": 4095,
      "Ġgeographic": 4096,
      "ĠApp": 4097,
      "Ġclarify": 4098,
      "ntertainment": 4099,
      "block": 4100,
      "Ġcredit": 4101,
      "Ġfamily": 4102,
      "outes": 4103,
      "ĠGas": 4104,
      "Ġemo": 4105,
      "Ġcharts": 4106,
      "Ġengagement": 4107,
      "ulfill": 4108,
      "bet": 4109,
      "mary": 4110,
      "ablish": 4111,
      "countryCode": 4112,
      "?\\\"\\": 4113,
      "Ġreceived": 4114,
      "otorcycle": 4115,
      "Video": 4116,
      "lines": 4117,
      "Ġ45": 4118,
      "Ġsample": 4119,
      "Ġfuel": 4120,
      "Ġoc": 4121,
      "Ġmap": 4122,
      "ĠInt": 4123,
      "ĠJuly": 4124,
      "ging": 4125,
      "press": 4126,
      "ta": 4127,
      "Ġfun": 4128,
      "cending": 4129,
      "rief": 4130,
      "Ġcondition": 4131,
      "Ġasks": 4132,
      "Ġpurposes": 4133,
      "style": 4134,
      "but": 4135,
      "calcul": 4136,
      "ious": 4137,
      "score": 4138,
      "vest": 4139,
      "ert": 4140,
      "amer": 4141,
      "ĠFe": 4142,
      "Ġgoals": 4143,
      "self": 4144,
      "66": 4145,
      "ech": 4146,
      "Ġmod": 4147,
      "ĠIs": 4148,
      "ĠASIN": 4149,
      "ĠMarch": 4150,
      "ĠAPIs": 4151,
      "Ġplaces": 4152,
      "ĠIndia": 4153,
      "Ġexperience": 4154,
      "Ġseveral": 4155,
      "How": 4156,
      "VID": 4157,
      "Ġdirection": 4158,
      "ĠES": 4159,
      "Ġdifficulty": 4160,
      "Ġtransactions": 4161,
      "ological": 4162,
      "Ġfutures": 4163,
      "facturer": 4164,
      "29": 4165,
      "ele": 4166,
      "ĠSouth": 4167,
      "cted": 4168,
      "ĠDes": 4169,
      "tices": 4170,
      "ovies": 4171,
      "afe": 4172,
      "paper": 4173,
      "height": 4174,
      "Ġshe": 4175,
      "Ġfulfill": 4176,
      "Ġhotel": 4177,
      "ĠĠĠĠĠĠĠ": 4178,
      "Ġ31": 4179,
      "oliday": 4180,
      "breviation": 4181,
      "ned": 4182,
      "Ġcalendar": 4183,
      "ĠgetM": 4184,
      "oday": 4185,
      "Cap": 4186,
      "nD": 4187,
      "Ġ~": 4188,
      "Ġchampions": 4189,
      "ustral": 4190,
      "ĠOver": 4191,
      "ĠVers": 4192,
      "ĠCons": 4193,
      "airport": 4194,
      "Ġbuilding": 4195,
      "Cloud": 4196,
      "Ġgenres": 4197,
      "allenges": 4198,
      "tiktok": 4199,
      "English": 4200,
      "ISO": 4201,
      "ming": 4202,
      "ules": 4203,
      "Ġepis": 4204,
      "security": 4205,
      "200": 4206,
      "plit": 4207,
      "Price": 4208,
      "gorithm": 4209,
      "folio": 4210,
      "media": 4211,
      "anking": 4212,
      "Ġmedi": 4213,
      "Ġ101": 4214,
      "izes": 4215,
      "cutive": 4216,
      "Ġmanu": 4217,
      "Event": 4218,
      "ges": 4219,
      "Ġsite": 4220,
      "ĠAvoid": 4221,
      "rab": 4222,
      "ota": 4223,
      "002": 4224,
      "ĠEnd": 4225,
      "Ġtypo": 4226,
      "Ġauth": 4227,
      "merce": 4228,
      "ĠFinal": 4229,
      "Ġdecis": 4230,
      "clude": 4231,
      "Latest": 4232,
      "away": 4233,
      "zer": 4234,
      "Ġsn": 4235,
      "Ġcoins": 4236,
      "Ġscreen": 4237,
      "Ġvalidation": 4238,
      "Stock": 4239,
      "Ġjoke": 4240,
      "ĠReport": 4241,
      "Ser": 4242,
      "Symbol": 4243,
      "\\\"**": 4244,
      "Ġwww": 4245,
      "Ġdict": 4246,
      "ĠSpotify": 4247,
      "nsity": 4248,
      "Ġreferring": 4249,
      "Ġsearches": 4250,
      "lab": 4251,
      "rin": 4252,
      "Ġdog": 4253,
      "ĠNet": 4254,
      "Ġvir": 4255,
      "Ġskin": 4256,
      "Ġcards": 4257,
      "IT": 4258,
      "Out": 4259,
      "sign": 4260,
      "yond": 4261,
      "Ġgroups": 4262,
      "ĠTest": 4263,
      "Ġconcer": 4264,
      "Ġ2000": 4265,
      "Ġexpected": 4266,
      "8765": 4267,
      "hour": 4268,
      "asing": 4269,
      "def": 4270,
      "ĠDomain": 4271,
      "portun": 4272,
      "Ġcomment": 4273,
      "ĠYep": 4274,
      "Ġ3166": 4275,
      "Ġmaterial": 4276,
      "Ġdisplay": 4277,
      "Ġzone": 4278,
      "ĠAccount": 4279,
      "Ġsmall": 4280,
      "razil": 4281,
      "Ġsorting": 4282,
      "Ġmen": 4283,
      "Ġsha": 4284,
      "Ġverification": 4285,
      "United": 4286,
      "Ġengine": 4287,
      "ged": 4288,
      "igence": 4289,
      "oth": 4290,
      "Ġwidth": 4291,
      "Ġdouble": 4292,
      "Ġbody": 4293,
      "Ġguid": 4294,
      "ĠCor": 4295,
      "ĠKore": 4296,
      "Generates": 4297,
      "Ġhuman": 4298,
      "message": 4299,
      "ilos": 4300,
      "Ġbeyond": 4301,
      "Ġjokes": 4302,
      "Ġappe": 4303,
      "Ġseparated": 4304,
      "ĠĠĠĠĠĠĠĠĠĠĠĠĠĠĠĠ": 4305,
      "Query": 4306,
      "88": 4307,
      "Game": 4308,
      "earches": 4309,
      "Ġrecommendations": 4310,
      "Ġversions": 4311,
      ")**\\": 4312,
      "onym": 4313,
      "ney": 4314,
      "icture": 4315,
      "Ġconsidering": 4316,
      "Up": 4317,
      "acity": 4318,
      "vince": 4319,
      "Ġtable": 4320,
      "ana": 4321,
      "Ġconstru": 4322,
      "words": 4323,
      "Ġautom": 4324,
      "ĠSimilar": 4325,
      "Ġimplying": 4326,
      "HT": 4327,
      "gment": 4328,
      "Ġrequirements": 4329,
      "aracter": 4330,
      "Searches": 4331,
      "dom": 4332,
      "Ġtennis": 4333,
      "Ġvalidate": 4334,
      "Ġmeaning": 4335,
      "mes": 4336,
      "men": 4337,
      "ĠDaily": 4338,
      "sses": 4339,
      "Ġpopularity": 4340,
      "Spe": 4341,
      "Ġtconst": 4342,
      "ĠNeed": 4343,
      "Ġupstring": 4344,
      "ĠWith": 4345,
      "ĠGB": 4346,
      "Ġsorted": 4347,
      "Ġbuy": 4348,
      "40": 4349,
      "Ġreference": 4350,
      "ĠCN": 4351,
      "ĠBook": 4352,
      "Ġtwice": 4353,
      "Ġcommunity": 4354,
      "ĠLike": 4355,
      "Path": 4356,
      "uation": 4357,
      "Ġtold": 4358,
      "olocation": 4359,
      "iling": 4360,
      "ĠOCR": 4361,
      "Ġearthqu": 4362,
      "----------------": 4363,
      "Find": 4364,
      "TSLA": 4365,
      "eper": 4366,
      "Ġx": 4367,
      "Ġint": 4368,
      "ĠSong": 4369,
      "ĠAvailable": 4370,
      "abases": 4371,
      "ĠEn": 4372,
      "ĠNot": 4373,
      "Season": 4374,
      "Ġomitted": 4375,
      "ĠCurrent": 4376,
      "Ġaudio": 4377,
      "Ticker": 4378,
      "tis": 4379,
      "Ġwind": 4380,
      "today": 4381,
      "Ġdep": 4382,
      "Ġplant": 4383,
      "Ġadding": 4384,
      "annels": 4385,
      "Ġespecially": 4386,
      "eke": 4387,
      "ners": 4388,
      "Ġefficiency": 4389,
      "ĠCent": 4390,
      "Ġarch": 4391,
      "ĠOp": 4392,
      "ĠĠĠĠĠ": 4393,
      "Ġfetching": 4394,
      "class": 4395,
      "ĠGenerator": 4396,
      "'\\": 4397,
      "OOG": 4398,
      "head": 4399,
      "ĠScore": 4400,
      "Ġ123456": 4401,
      "`.\",": 4402,
      "Ġ%": 4403,
      "ĠIdentif": 4404,
      "ĠBre": 4405,
      "ĠBase": 4406,
      "ĠBoston": 4407,
      "ĠMS": 4408,
      "Ġapi": 4409,
      "CAG": 4410,
      "Ġcurious": 4411,
      "ĠEven": 4412,
      "Ġcompliance": 4413,
      "ĠGree": 4414,
      "arison": 4415,
      "Ġ36": 4416,
      "Ġfinance": 4417,
      "akers": 4418,
      "Ġprofession": 4419,
      "500": 4420,
      "Med": 4421,
      "RT": 4422,
      "atural": 4423,
      "Ġbrief": 4424,
      "istance": 4425,
      "ĠNASDAQ": 4426,
      "Ġsometimes": 4427,
      "ĠProperty": 4428,
      "News": 4429,
      "nTo": 4430,
      "sports": 4431,
      "alty": 4432,
      "Ġow": 4433,
      "ĠSocial": 4434,
      "Ġqueries": 4435,
      "erson": 4436,
      "inese": 4437,
      "ĠTrack": 4438,
      "Ġfacility": 4439,
      "Send": 4440,
      "lin": 4441,
      "Ġcases": 4442,
      "Ġdone": 4443,
      "ĠDi": 4444,
      "platform": 4445,
      "Â°": 4446,
      "arma": 4447,
      "ĠSc": 4448,
      "ĠSub": 4449,
      "Ġquick": 4450,
      "find": 4451,
      "Ġinside": 4452,
      "Ġspace": 4453,
      "piration": 4454,
      "67890": 4455,
      "zip": 4456,
      "ĠNA": 4457,
      "Ġunits": 4458,
      "pril": 4459,
      "Artist": 4460,
      "cs": 4461,
      "nail": 4462,
      "Ġtom": 4463,
      "ĠTem": 4464,
      "Ġexchanges": 4465,
      "ban": 4466,
      "ugu": 4467,
      "lex": 4468,
      "thon": 4469,
      "Ġmee": 4470,
      "Tech": 4471,
      "Ġestate": 4472,
      "umbnail": 4473,
      "Ġfavorite": 4474,
      "ablishment": 4475,
      "Location": 4476,
      "PJ": 4477,
      "oon": 4478,
      "uzz": 4479,
      "Ġclub": 4480,
      "Ġmutual": 4481,
      "kens": 4482,
      "ĠFeed": 4483,
      "Ġnotific": 4484,
      "foot": 4485,
      "ĠChannel": 4486,
      "Ġadverti": 4487,
      "ĠWeek": 4488,
      "Example": 4489,
      "Ġthinking": 4490,
      "cheduled": 4491,
      "Ġdelivery": 4492,
      "33": 4493,
      "FK": 4494,
      "Rob": 4495,
      "property": 4496,
      "ĠCar": 4497,
      "irth": 4498,
      "ĠTitle": 4499,
      "Ġsetting": 4500,
      "wards": 4501,
      "Ġretrieval": 4502,
      "```": 4503,
      "fully": 4504,
      "68": 4505,
      "rooms": 4506,
      "ĠSign": 4507,
      "complete": 4508,
      "Ġdatabases": 4509,
      "Ġsurvey": 4510,
      "Ġguide": 4511,
      "Ġaudience": 4512,
      "DP": 4513,
      "Google": 4514,
      "sens": 4515,
      "Ġbegin": 4516,
      "Ġcomponent": 4517,
      "ĠGames": 4518,
      "Ġtimeframe": 4519,
      "website": 4520,
      "timestamp": 4521,
      "clusive": 4522,
      "Ġtracks": 4523,
      "1234567890": 4524,
      "Ġflag": 4525,
      "Ġcompetition": 4526,
      "Robot": 4527,
      "bon": 4528,
      "gative": 4529,
      "ixt": 4530,
      "uch": 4531,
      "ĠIT": 4532,
      "cont": 4533,
      "ĠHot": 4534,
      "Ġ21": 4535,
      "Ġinstance": 4536,
      "Ġweeks": 4537,
      "Ġerror": 4538,
      "Ġlottery": 4539,
      "CT": 4540,
      "rica": 4541,
      "Ġrelease": 4542,
      "Ġshouldn": 4543,
      "ĠStorage": 4544,
      "timezone": 4545,
      "Ġagainst": 4546,
      "ĠAlbum": 4547,
      "...\\\"": 4548,
      "Ġobtain": 4549,
      "olders": 4550,
      "Ġstrategy": 4551,
      "nEach": 4552,
      "Ġtrigger": 4553,
      "portunities": 4554,
      "Ġrecall": 4555,
      "formed": 4556,
      "Ġweeke": 4557,
      "ĠgetS": 4558,
      "ĠGame": 4559,
      "Ġcommod": 4560,
      "Ġtomorrow": 4561,
      "Set": 4562,
      "width": 4563,
      "Ġ\"^": 4564,
      "ont": 4565,
      "atter": 4566,
      "tech": 4567,
      "cimal": 4568,
      "ĠCard": 4569,
      "ĠResults": 4570,
      ".)": 4571,
      "utor": 4572,
      "Ġmoving": 4573,
      "Ġindices": 4574,
      "Ġacceptable": 4575,
      "85": 4576,
      "ung": 4577,
      "performance": 4578,
      "Ġconver": 4579,
      "Ġactivities": 4580,
      "nsive": 4581,
      "acebook": 4582,
      "5678": 4583,
      "Ġbrands": 4584,
      "Ġproperly": 4585,
      "iami": 4586,
      "move": 4587,
      "inary": 4588,
      "Ġbel": 4589,
      "ĠHH": 4590,
      "Ġdeeper": 4591,
      "ĠJP": 4592,
      "nSt": 4593,
      "Ġleagues": 4594,
      "arterly": 4595,
      "Ġagent": 4596,
      "strument": 4597,
      "NG": 4598,
      "Rate": 4599,
      "plication": 4600,
      "Ġfinal": 4601,
      "curities": 4602,
      "Ġcoordinate": 4603,
      "standing": 4604,
      "Calculate": 4605,
      "Ġroute": 4606,
      "ictionary": 4607,
      "calculate": 4608,
      "ustralia": 4609,
      "bt": 4610,
      "ush": 4611,
      "Ġmeters": 4612,
      "Ġpreferences": 4613,
      "Ġcosts": 4614,
      "Converts": 4615,
      "35": 4616,
      "method": 4617,
      "Ġcuis": 4618,
      "Ġblog": 4619,
      "Ġmix": 4620,
      "Ġhor": 4621,
      "Ġgot": 4622,
      "ĠChange": 4623,
      "ibly": 4624,
      "26": 4625,
      "95": 4626,
      "Fetch": 4627,
      "Log": 4628,
      "ides": 4629,
      "mod": 4630,
      "pot": 4631,
      "song": 4632,
      "Ġfam": 4633,
      "Ġstrength": 4634,
      "paring": 4635,
      "Ġregul": 4636,
      "Ġrelate": 4637,
      "Ġhighlight": 4638,
      "Ġentry": 4639,
      "Ġingredients": 4640,
      "Ġvolatility": 4641,
      "Dis": 4642,
      "RR": 4643,
      "Sub": 4644,
      "Year": 4645,
      "iring": 4646,
      "session": 4647,
      "Ġhard": 4648,
      "ĠLoc": 4649,
      "Ġrace": 4650,
      "Ġfiles": 4651,
      "football": 4652,
      "Ġland": 4653,
      "Ġplants": 4654,
      "ĠJune": 4655,
      "udy": 4656,
      "create": 4657,
      "Ġtemplate": 4658,
      "Ġallowed": 4659,
      "Ġparticip": 4660,
      "Ġconsecutive": 4661,
      "MD": 4662,
      "Mo": 4663,
      "man": 4664,
      "Ġq": 4665,
      "pending": 4666,
      "Ġstay": 4667,
      "Ġchild": 4668,
      "ticle": 4669,
      "Ġassign": 4670,
      "cloud": 4671,
      "ĠPosts": 4672,
      "Level": 4673,
      "77": 4674,
      "JP": 4675,
      "ZN": 4676,
      "contract": 4677,
      "ĠLa": 4678,
      "unit": 4679,
      "elines": 4680,
      "Ġindicators": 4681,
      "Why": 4682,
      "Ġdevelop": 4683,
      "ĠVehicle": 4684,
      "national": 4685,
      "Ġlang": 4686,
      "ĠThese": 4687,
      "ĠAre": 4688,
      "Ġcallback": 4689,
      "ĠMicrosoft": 4690,
      "ĠDel": 4691,
      "Ġ{\\": 4692,
      "ĠOff": 4693,
      "Token": 4694,
      "Ġhighlights": 4695,
      "Del": 4696,
      "En": 4697,
      "duration": 4698,
      "¸ı": 4699,
      "ï¸ı": 4700,
      "hest": 4701,
      "stra": 4702,
      "Ġremain": 4703,
      "ĠSup": 4704,
      "ĠBu": 4705,
      "Ġvalistring": 4706,
      "ĠChina": 4707,
      "Ġindicator": 4708,
      "123456789": 4709,
      "Ġinfluenc": 4710,
      "Ġeffective": 4711,
      "brand": 4712,
      "rike": 4713,
      "Ġstation": 4714,
      "ticles": 4715,
      "Ġstarts": 4716,
      "Network": 4717,
      "Ġstories": 4718,
      "cons": 4719,
      "Ġactions": 4720,
      "make": 4721,
      "ĠChampions": 4722,
      "Ġattrib": 4723,
      "ashtags": 4724,
      "Ġrele": 4725,
      "terday": 4726,
      "Ġchallenge": 4727,
      "arest": 4728,
      "ĠReal": 4729,
      "web": 4730,
      "Ġreli": 4731,
      "ĠChecker": 4732,
      "Ġscene": 4733,
      "Ġpayment": 4734,
      "Latitude": 4735,
      "OS": 4736,
      "dis": 4737,
      "dig": 4738,
      "Ġpin": 4739,
      "Ġpick": 4740,
      "Ġnor": 4741,
      "Ġcomplete": 4742,
      "ĠGen": 4743,
      "ĠGlobal": 4744,
      "pute": 4745,
      "Ġoverview": 4746,
      "Ġinflu": 4747,
      "ĠVideos": 4748,
      "ĠMovie": 4749,
      "ĠAfrica": 4750,
      "IL": 4751,
      "pening": 4752,
      "inger": 4753,
      "cember": 4754,
      "ĠBinance": 4755,
      "ĠParis": 4756,
      "Ġtradem": 4757,
      "ssible": 4758,
      "Ġinstall": 4759,
      "Ġbaseball": 4760,
      "ĠAsia": 4761,
      "Ġcommunication": 4762,
      "Ġcomplex": 4763,
      "98": 4764,
      "john": 4765,
      "Ġrevenue": 4766,
      "ĠSound": 4767,
      "ĠSpecific": 4768,
      "ĠMusic": 4769,
      "ups": 4770,
      "ĠOut": 4771,
      "Ġgenerating": 4772,
      "customer": 4773,
      "ture": 4774,
      "inecraft": 4775,
      "itionally": 4776,
      "Ġphys": 4777,
      "ĠIncome": 4778,
      "ETH": 4779,
      "Ġload": 4780,
      "Ġinternational": 4781,
      "hot": 4782,
      "tom": 4783,
      "Ġmoney": 4784,
      "lear": 4785,
      "idd": 4786,
      "getM": 4787,
      "Ġrelations": 4788,
      "Ġ40": 4789,
      "Ġscra": 4790,
      "Ġautocomplete": 4791,
      "Ġgover": 4792,
      "entiment": 4793,
      "ĠJapanese": 4794,
      "Ġdelete": 4795,
      "lng": 4796,
      "inated": 4797,
      "Ġcast": 4798,
      "oles": 4799,
      "ounce": 4800,
      "Ġbudget": 4801,
      "nown": 4802,
      "Ġtraffic": 4803,
      "itely": 4804,
      "ĠItaly": 4805,
      "Ġshortcode": 4806,
      "Longitude": 4807,
      "OT": 4808,
      "Su": 4809,
      "origin": 4810,
      "ĠBoth": 4811,
      "ĠOn": 4812,
      "ĠOptions": 4813,
      "ĠStart": 4814,
      "ĠIndian": 4815,
      "Current": 4816,
      "Annotations": 4817,
      "fits": 4818,
      "Ġur": 4819,
      "report": 4820,
      "Ġcy": 4821,
      "Ġbene": 4822,
      "ĠType": 4823,
      "ĠMe": 4824,
      "cheme": 4825,
      "witter": 4826,
      "ĠWeather": 4827,
      "Ġhealthcare": 4828,
      "Ġregistered": 4829,
      "Order": 4830,
      "ĠSEO": 4831,
      "Ġpractices": 4832,
      "Quality": 4833,
      "wise": 4834,
      "ero": 4835,
      "Ġwon": 4836,
      "ĠFlights": 4837,
      "Ġlife": 4838,
      "ife": 4839,
      "ĠOTP": 4840,
      "acc": 4841,
      "posable": 4842,
      "*\\": 4843,
      "345": 4844,
      "true": 4845,
      "Ġtal": 4846,
      "rees": 4847,
      "olar": 4848,
      "Ġinde": 4849,
      "Ġdescri": 4850,
      "Ġkil": 4851,
      "Ġformats": 4852,
      "ĠAmerica": 4853,
      "Minimum": 4854,
      "One": 4855,
      "az": 4856,
      "most": 4857,
      "input": 4858,
      "Ġcir": 4859,
      "oly": 4860,
      "Ġnet": 4861,
      "ications": 4862,
      "ĠBrazil": 4863,
      "Ġcompl": 4864,
      "Ġtrain": 4865,
      "fication": 4866,
      "minimum": 4867,
      "Ġoverall": 4868,
      "Ġobjects": 4869,
      "Ġresponses": 4870,
      "ĠSecond": 4871,
      "Value": 4872,
      "ribution": 4873,
      "Ġeducation": 4874,
      "Ġdiscuss": 4875,
      "business": 4876,
      "Ġtt": 4877,
      "Ġflu": 4878,
      "icken": 4879,
      "Ġlight": 4880,
      "Ġfilm": 4881,
      "Ġmaintenance": 4882,
      "4321": 4883,
      "Ġpositions": 4884,
      "Track": 4885,
      "grade": 4886,
      "Interval": 4887,
      "Ġmedium": 4888,
      "Use": 4889,
      "cti": 4890,
      "wap": 4891,
      "Ġ...": 4892,
      "Ġfive": 4893,
      "Ġremember": 4894,
      "Ġlarge": 4895,
      "Ġhosp": 4896,
      "resting": 4897,
      "ĠgetB": 4898,
      "Ġenh": 4899,
      "Ġamb": 4900,
      "Ġfunds": 4901,
      "Po": 4902,
      "fetch": 4903,
      "run": 4904,
      "index": 4905,
      "\\\")": 4906,
      "rote": 4907,
      "Ġentertainment": 4908,
      "ĠCash": 4909,
      "ĠMP": 4910,
      "Ġlegal": 4911,
      "Ġsupply": 4912,
      "collection": 4913,
      "Ġpairs": 4914,
      "ĠPhone": 4915,
      "ĠPlayers": 4916,
      "Ġcultural": 4917,
      "Ġportfolio": 4918,
      "Ġticket": 4919,
      "iddle": 4920,
      "Ġwrote": 4921,
      "Ġbar": 4922,
      "urg": 4923,
      "ĠApril": 4924,
      "ĠGu": 4925,
      "Ġupdating": 4926,
      "rends": 4927,
      "ĠMSFT": 4928,
      "Domain": 4929,
      "EF": 4930,
      "Historical": 4931,
      "stim": 4932,
      "Ġdocuments": 4933,
      "Ġbasic": 4934,
      "Ġmotorcycle": 4935,
      "force": 4936,
      "ĠDrive": 4937,
      "nThese": 4938,
      "Health": 4939,
      "ynam": 4940,
      "ĠRecipe": 4941,
      "Url": 4942,
      "Pop": 4943,
      "View": 4944,
      "ye": 4945,
      "Ġbot": 4946,
      "ayout": 4947,
      "ĠSpe": 4948,
      "ĠFour": 4949,
      "ĠNe": 4950,
      "ĠWH": 4951,
      "Ġprecise": 4952,
      "Ġallowing": 4953,
      "popularity": 4954,
      "Be": 4955,
      "Category": 4956,
      "LB": 4957,
      "friendly": 4958,
      "master": 4959,
      "health": 4960,
      "olden": 4961,
      "etary": 4962,
      "Ġdance": 4963,
      "Ġinventory": 4964,
      "gency": 4965,
      "ĠLot": 4966,
      "ĠPower": 4967,
      "Ġabove": 4968,
      "Ġwanted": 4969,
      "ĠLege": 4970,
      "Ġaffect": 4971,
      "Ġrecently": 4972,
      "Ġairports": 4973,
      "Ġcontacts": 4974,
      "lected": 4975,
      "ĠShort": 4976,
      "aurants": 4977,
      "Ġguest": 4978,
      "Ġgovern": 4979,
      "37": 4980,
      "cher": 4981,
      "dra": 4982,
      "eking": 4983,
      "analysis": 4984,
      "ley": 4985,
      "Ġproxies": 4986,
      "provid": 4987,
      "Ġprovider": 4988,
      "Ġconcise": 4989,
      "Ġimmediate": 4990,
      "series": 4991,
      "ternoon": 4992,
      "Ġsupports": 4993,
      "ummer": 4994,
      "nHowever": 4995,
      "obs": 4996,
      "tle": 4997,
      "zen": 4998,
      "eted": 4999,
      "Ġnight": 5000,
      "Ġbull": 5001,
      "ĠMed": 5002,
      "Ġreser": 5003,
      "Ġgets": 5004,
      "illow": 5005,
      "Ġleader": 5006,
      "ĠArtists": 5007,
      "Ġprofessional": 5008,
      "utorial": 5009,
      "ER": 5010,
      "card": 5011,
      "pus": 5012,
      "Ġscript": 5013,
      "Ġder": 5014,
      "Ġreach": 5015,
      "itable": 5016,
      "Ġforum": 5017,
      "ĠItem": 5018,
      "Ġexternal": 5019,
      "ĠFacebook": 5020,
      "ĠRo": 5021,
      "Ġupload": 5022,
      "atives": 5023,
      "NBA": 5024,
      "Ġsqu": 5025,
      "ĠSchedule": 5026,
      "urch": 5027,
      "lude": 5028,
      "ĠDecember": 5029,
      "Tokyo": 5030,
      "ĠCollection": 5031,
      "'.\"},": 5032,
      "If": 5033,
      "Random": 5034,
      "ius": 5035,
      "ĠRet": 5036,
      "\\\"?\"},": 5037,
      "tocol": 5038,
      "posts": 5039,
      "Ġvisual": 5040,
      "Ġregardless": 5041,
      "AU": 5042,
      "ault": 5043,
      "Ġsynt": 5044,
      "strict": 5045,
      "mentum": 5046,
      "Ġsending": 5047,
      "ĠYear": 5048,
      "weight": 5049,
      "Ġstructured": 5050,
      "Company": 5051,
      "Ġpossibly": 5052,
      "hai": 5053,
      "567": 5054,
      "Ġissue": 5055,
      "Man": 5056,
      "rong": 5057,
      "Ġtr": 5058,
      "Ġmark": 5059,
      "Ġprojects": 5060,
      "Ġwhose": 5061,
      "ĠRating": 5062,
      "ĠgetF": 5063,
      "Ġliquid": 5064,
      "ĠOh": 5065,
      "Ġboolean": 5066,
      "Ġ102": 5067,
      "porting": 5068,
      "Ġclarification": 5069,
      "ĠStandings": 5070,
      "ike": 5071,
      "table": 5072,
      "yd": 5073,
      "aring": 5074,
      "room": 5075,
      "Ġnumer": 5076,
      "Ġbal": 5077,
      "Ġred": 5078,
      "cel": 5079,
      "venture": 5080,
      "Ġsimple": 5081,
      "Ġleading": 5082,
      "Ġmovement": 5083,
      "ĠSmith": 5084,
      "nThird": 5085,
      "'\",": 5086,
      "Ve": 5087,
      "rc": 5088,
      "Ġtower": 5089,
      "Ġpull": 5090,
      "Ġlove": 5091,
      "Ġdeg": 5092,
      "ĠEng": 5093,
      "Ġlikes": 5094,
      "getS": 5095,
      "illions": 5096,
      "Ġroutes": 5097,
      "Ġtraditional": 5098,
      "symbols": 5099,
      "Ġintervals": 5100,
      "Plan": 5101,
      "ĠFrance": 5102,
      "Ġextracted": 5103,
      "Ġmanufacturer": 5104,
      "Ġpie": 5105,
      "Ġmiles": 5106,
      "ĠMen": 5107,
      "Instrument": 5108,
      "Ġauto": 5109,
      "Cont": 5110,
      "havi": 5111,
      "Ġerrors": 5112,
      "agnos": 5113,
      "uck": 5114,
      "request": 5115,
      "ering": 5116,
      "sts": 5117,
      "Ġfake": 5118,
      "ĠAU": 5119,
      "ĠABC": 5120,
      "ĠAlpha": 5121,
      "Ġexer": 5122,
      "Ġattem": 5123,
      "nel": 5124,
      "ĠcountryCode": 5125,
      "obile": 5126,
      "Cons": 5127,
      "ĠTeams": 5128,
      "Ġimprove": 5129,
      "Extra": 5130,
      "hook": 5131,
      "zure": 5132,
      "destination": 5133,
      "ultural": 5134,
      "ĠHow": 5135,
      "ĠgetG": 5136,
      "Ġradius": 5137,
      "tember": 5138,
      "Ġpassed": 5139,
      "Ġsuccessful": 5140,
      "ĠLegends": 5141,
      "dient": 5142,
      "jury": 5143,
      "music": 5144,
      "alian": 5145,
      "quity": 5146,
      "Ġrequ": 5147,
      "Ġpricing": 5148,
      "opping": 5149,
      "Ġhandles": 5150,
      "eptember": 5151,
      "Ġworks": 5152,
      "ognition": 5153,
      "ĠHealth": 5154,
      "Ġalbums": 5155,
      "Ġvirtual": 5156,
      "42": 5157,
      "Eth": 5158,
      "Of": 5159,
      "close": 5160,
      "live": 5161,
      "}-\\": 5162,
      "rit": 5163,
      "toon": 5164,
      "ago": 5165,
      "plates": 5166,
      "atin": 5167,
      "ifies": 5168,
      "Ġregular": 5169,
      "Ġbuild": 5170,
      "conomy": 5171,
      "Ġsafety": 5172,
      "ĠFollowers": 5173,
      "32": 5174,
      "Euro": 5175,
      "Ġturn": 5176,
      "Ġtokens": 5177,
      "Ġinvesting": 5178,
      "ĠSummary": 5179,
      "Ġgar": 5180,
      "Ġsecure": 5181,
      "ĠListing": 5182,
      "ĠDis": 5183,
      "ocoding": 5184,
      "rypt": 5185,
      "portation": 5186,
      "\\\".\"},": 5187,
      "itivity": 5188,
      "Ġ60": 5189,
      "Checks": 5190,
      "Ġwebpage": 5191,
      "Ġtranslate": 5192,
      "Ġreceive": 5193,
      "ĠCOVID": 5194,
      "ĠKorea": 5195,
      "Ġcuisine": 5196,
      "').\",": 5197,
      "crypto": 5198,
      "joy": 5199,
      "nm": 5200,
      "trending": 5201,
      "uter": 5202,
      "Ġdrive": 5203,
      "Ġlat": 5204,
      "Ġless": 5205,
      "Ġmand": 5206,
      "ĠGET": 5207,
      "Ġprimary": 5208,
      "Ġsettings": 5209,
      "reds": 5210,
      "Ġconsult": 5211,
      "ĠCodes": 5212,
      "ĠQuotes": 5213,
      "xyz": 5214,
      "ĠMetadata": 5215,
      "Ġmeasurement": 5216,
      "High": 5217,
      "Ġbank": 5218,
      "Ġprogress": 5219,
      "umn": 5220,
      "ĠRest": 5221,
      "gether": 5222,
      "izb": 5223,
      "maximum": 5224,
      "ĠChart": 5225,
      "ĠProducts": 5226,
      "Ġ67890": 5227,
      "ĠQuote": 5228,
      "That": 5229,
      "ops": 5230,
      "Ġu": 5231,
      "Ġnatural": 5232,
      "Ġbra": 5233,
      "ĠGST": 5234,
      "quences": 5235,
      "nsion": 5236,
      "Instance": 5237,
      "idence": 5238,
      "Ġdefinitely": 5239,
      "titu": 5240,
      "Ġopportunities": 5241,
      "ĠOrder": 5242,
      "ĠCloud": 5243,
      "Ġverses": 5244,
      "dataset": 5245,
      "fields": 5246,
      "}-\\\\": 5247,
      "FR": 5248,
      "dit": 5249,
      "dif": 5250,
      "enc": 5251,
      "Ġclose": 5252,
      "oli": 5253,
      "Ġreally": 5254,
      "Ġmorning": 5255,
      "ayment": 5256,
      "Ġalways": 5257,
      "Ġinteger": 5258,
      "Ġcalculated": 5259,
      "reatment": 5260,
      "Ġcorrespond": 5261,
      "Ġentire": 5262,
      "Ġtweet": 5263,
      "Verify": 5264,
      "tistic": 5265,
      "IV": 5266,
      "NY": 5267,
      "lete": 5268,
      "Ġsal": 5269,
      "ĠMode": 5270,
      "ĠEm": 5271,
      "response": 5272,
      "ĠOne": 5273,
      "Ġcreating": 5274,
      "Ġmanual": 5275,
      "Ġprofile": 5276,
      "Ġanalyzed": 5277,
      "Ġpurchase": 5278,
      "Ġexec": 5279,
      "ĠPopular": 5280,
      "Ġconverting": 5281,
      "City": 5282,
      "CAA": 5283,
      "ara": 5284,
      "Ġbound": 5285,
      "ĠAustralia": 5286,
      "prostring": 5287,
      "Ġpredict": 5288,
      "ĠItalian": 5289,
      "Ġcareer": 5290,
      "Crypto": 5291,
      "Pdf": 5292,
      "free": 5293,
      "iet": 5294,
      "night": 5295,
      "edin": 5296,
      "ouri": 5297,
      "Ġinvalid": 5298,
      "Ġmuch": 5299,
      "Ġstudent": 5300,
      "igu": 5301,
      "Ġperfect": 5302,
      "ĠDec": 5303,
      "Ġmanager": 5304,
      "iki": 5305,
      "ĠZIP": 5306,
      "keywords": 5307,
      "labor": 5308,
      "SC": 5309,
      "rant": 5310,
      "atabase": 5311,
      "icense": 5312,
      "uran": 5313,
      "Ġann": 5314,
      "ller": 5315,
      "ĠSome": 5316,
      "Ġchallenges": 5317,
      "Ġchannels": 5318,
      "State": 5319,
      "cape": 5320,
      "Complete": 5321,
      "Ġoffice": 5322,
      "Valid": 5323,
      "Ġidea": 5324,
      "Post": 5325,
      "recent": 5326,
      "Ġcal": 5327,
      "Ġcrop": 5328,
      "Ġreplace": 5329,
      "ĠBlock": 5330,
      "Ġexte": 5331,
      "ĠPy": 5332,
      "ĠHashtags": 5333,
      "Ġsave": 5334,
      "ields": 5335,
      "Ġ*\\\"": 5336,
      "Ġrealize": 5337,
      "Ġinflation": 5338,
      "argin": 5339,
      "Ġelements": 5340,
      "Create": 5341,
      "It": 5342,
      "categories": 5343,
      "hash": 5344,
      "this": 5345,
      "Ġchecked": 5346,
      "Ġsomeone": 5347,
      "Ġcritical": 5348,
      "USDT": 5349,
      "ĠCurrency": 5350,
      "Ġsubscription": 5351,
      "amazon": 5352,
      "atterns": 5353,
      "ĠSoundCloud": 5354,
      "Ob": 5355,
      "can": 5356,
      "dt": 5357,
      "flow": 5358,
      "known": 5359,
      "tiv": 5360,
      "Ġcross": 5361,
      "Ġtogether": 5362,
      "antasy": 5363,
      "ĠMiami": 5364,
      "Ġhel": 5365,
      "comp": 5366,
      "ĠGroup": 5367,
      "Ġcommas": 5368,
      "Product": 5369,
      "Ġdise": 5370,
      "Ġbusinesses": 5371,
      "Ġairline": 5372,
      "Downloads": 5373,
      "Ġtweets": 5374,
      "Ġmedical": 5375,
      "Ġowner": 5376,
      "ingerprint": 5377,
      "Ġattempt": 5378,
      "):**": 5379,
      "86": 5380,
      "QR": 5381,
      "`\",": 5382,
      "ug": 5383,
      "eder": 5384,
      "icies": 5385,
      "ilitation": 5386,
      "ownt": 5387,
      "ĠCSV": 5388,
      "ĠLast": 5389,
      "ĠHD": 5390,
      "Ġchapter": 5391,
      "Ġcompute": 5392,
      "ĠWork": 5393,
      "Ġjarg": 5394,
      "ĠOther": 5395,
      "nsions": 5396,
      "Ġalgorithm": 5397,
      "timeframe": 5398,
      "pageNumber": 5399,
      "Ġcommand": 5400,
      "Ġcreation": 5401,
      "Ġrock": 5402,
      "Ġmind": 5403,
      "Ġattachment": 5404,
      "ĠEuropean": 5405,
      "habilitation": 5406,
      "havior": 5407,
      "Ġmandatory": 5408,
      "Ġjargon": 5409,
      "Score": 5410,
      "hashtag": 5411,
      "ugh": 5412,
      "Ġfits": 5413,
      "omy": 5414,
      "Ġsender": 5415,
      "ĠCalcul": 5416,
      "ĠCities": 5417,
      "Ġspecifies": 5418,
      "fast": 5419,
      "ĠMark": 5420,
      "Ġdef": 5421,
      "images": 5422,
      "ĠRanking": 5423,
      "Ġrules": 5424,
      "etection": 5425,
      "ursing": 5426,
      "database": 5427,
      "Daily": 5428,
      "PC": 5429,
      "ĠSentiment": 5430,
      "otors": 5431,
      "Ġindicate": 5432,
      "space": 5433,
      "Annotation": 5434,
      "Ġdemand": 5435,
      "mission": 5436,
      "nDouble": 5437,
      "*:": 5438,
      "dated": 5439,
      "task": 5440,
      "Ġtab": 5441,
      "inic": 5442,
      "tein": 5443,
      "Ġgreat": 5444,
      "ĠCri": 5445,
      "ategor": 5446,
      "Ġclick": 5447,
      "Ġcomparison": 5448,
      "ĠStore": 5449,
      "Ġopin": 5450,
      "Ġdigits": 5451,
      "ĠAirport": 5452,
      "Ġdetection": 5453,
      "Ġpreferred": 5454,
      "ĠVersion": 5455,
      "Ġleaderboard": 5456,
      "At": 5457,
      "HH": 5458,
      "fix": 5459,
      "ivery": 5460,
      "}$": 5461,
      "Ġunc": 5462,
      "Ġsl": 5463,
      "Ġsustain": 5464,
      "Ġfill": 5465,
      "itals": 5466,
      "ĠSeptember": 5467,
      "ĠLanguage": 5468,
      "ancel": 5469,
      "Ġsaving": 5470,
      "Ġrelative": 5471,
      "ĠNorth": 5472,
      "securityId": 5473,
      "Ġambigu": 5474,
      "Fl": 5475,
      "gar": 5476,
      "Ġscience": 5477,
      "Ġcru": 5478,
      "ustin": 5479,
      "Ġbl": 5480,
      "Ġstations": 5481,
      "Ġhex": 5482,
      "ĠGIF": 5483,
      "Ġbreeds": 5484,
      "medy": 5485,
      "Ġstreaming": 5486,
      "ĠRecognition": 5487,
      "Ġpressure": 5488,
      "Ġinfluence": 5489,
      "gn": 5490,
      "google": 5491,
      "ker": 5492,
      "oes": 5493,
      "odes": 5494,
      "Ġ00": 5495,
      "ren": 5496,
      "Ġgaming": 5497,
      "ĠEmp": 5498,
      "unnel": 5499,
      "plement": 5500,
      "izations": 5501,
      "Ġargu": 5502,
      "Ġnotice": 5503,
      "Ġintell": 5504,
      "ĠZillow": 5505,
      "auto": 5506,
      "Ġcontains": 5507,
      ":*": 5508,
      "Cri": 5509,
      "PG": 5510,
      "pical": 5511,
      "hereum": 5512,
      "Ġdom": 5513,
      "Ġrental": 5514,
      "alls": 5515,
      "Ġgene": 5516,
      "ĠOnt": 5517,
      "Ġgeneric": 5518,
      "anche": 5519,
      "ĠChinese": 5520,
      "Apple": 5521,
      "ĠDownloader": 5522,
      "ĠCNPJ": 5523,
      "Ġweekend": 5524,
      "otorsport": 5525,
      "dri": 5526,
      "ĠRetrieve": 5527,
      "erts": 5528,
      "Ġsplit": 5529,
      "Ġfast": 5530,
      "ĠTim": 5531,
      "ĠMust": 5532,
      "Ġfunctionality": 5533,
      "ĠFrom": 5534,
      "iences": 5535,
      "dentials": 5536,
      "omen": 5537,
      "Ġhandled": 5538,
      "Ġbackground": 5539,
      "Ġbroad": 5540,
      "ĠIdentification": 5541,
      "38": 5542,
      "Sports": 5543,
      "iers": 5544,
      "species": 5545,
      "inclusive": 5546,
      "Ġmag": 5547,
      "Ġ\\\"#": 5548,
      "Ġly": 5549,
      "asures": 5550,
      "Ġhouse": 5551,
      "abol": 5552,
      "ĠPinterest": 5553,
      "Ġdeals": 5554,
      "callback": 5555,
      "matches": 5556,
      "acks": 5557,
      "service": 5558,
      "local": 5559,
      "Ġinteresting": 5560,
      "oderate": 5561,
      "Ġincrease": 5562,
      "going": 5563,
      "flix": 5564,
      "ĠSymbols": 5565,
      "Ġobtained": 5566,
      "Meth": 5567,
      "bility": 5568,
      "cas": 5569,
      "detail": 5570,
      "gain": 5571,
      "pid": 5572,
      "Ġlater": 5573,
      "Ġorders": 5574,
      "ĠBible": 5575,
      "ĠMonth": 5576,
      "Ġgeolocation": 5577,
      "odi": 5578,
      "arian": 5579,
      "Ġproduction": 5580,
      "Ġinstrument": 5581,
      "ĠAny": 5582,
      "000000": 5583,
      "Play": 5584,
      "Include": 5585,
      "Ġcand": 5586,
      "Ġfestival": 5587,
      "Ġpaid": 5588,
      "Ġoil": 5589,
      "ĠSw": 5590,
      "ĠTool": 5591,
      "ĠgetL": 5592,
      "nses": 5593,
      "ĠChapter": 5594,
      "ĠQuran": 5595,
      "432": 5596,
      "nPlease": 5597,
      "!\"}],": 5598,
      "/@": 5599,
      "EN": 5600,
      "Off": 5601,
      "food": 5602,
      "Ġ456": 5603,
      "Ġaway": 5604,
      "ertific": 5605,
      "Ġcookie": 5606,
      "robot": 5607,
      "Ġinbox": 5608,
      "Ġhost": 5609,
      "condition": 5610,
      "Ġwhom": 5611,
      "2000": 5612,
      "ĠFilter": 5613,
      "Ġ2019": 5614,
      "ĠContent": 5615,
      "AAAA": 5616,
      "avig": 5617,
      "Ġdefinitions": 5618,
      "Ġpromo": 5619,
      "ĠBybit": 5620,
      "ĠSpring": 5621,
      "Ġhighest": 5622,
      "Ġaudit": 5623,
      "ĠStatement": 5624,
      "Ġtickers": 5625,
      "attle": 5626,
      "Live": 5627,
      "Power": 5628,
      "gov": 5629,
      "ope": 5630,
      "past": 5631,
      "hel": 5632,
      "234": 5633,
      "ippe": 5634,
      "assuming": 5635,
      "pageSize": 5636,
      "Ġdifference": 5637,
      "Ġveget": 5638,
      "Ġelement": 5639,
      "graphy": 5640,
      "Ġdecisions": 5641,
      "Ġintelligence": 5642,
      "'?": 5643,
      "/)": 5644,
      "German": 5645,
      "host": 5646,
      "Ġfashion": 5647,
      "pects": 5648,
      "ĠScheduled": 5649,
      "Ġhockey": 5650,
      "ĠDra": 5651,
      "ĠDoll": 5652,
      "Ġvary": 5653,
      "ĠJane": 5654,
      "ĠChain": 5655,
      "Ġschools": 5656,
      "Social": 5657,
      "Ġphysical": 5658,
      "57": 5659,
      "Ear": 5660,
      "Media": 5661,
      "late": 5662,
      "istry": 5663,
      "utures": 5664,
      "Ġmeant": 5665,
      "ĠMessage": 5666,
      "ĠMLB": 5667,
      "update": 5668,
      "ĠRisk": 5669,
      "Ġnoise": 5670,
      "ĠOpe": 5671,
      "asset": 5672,
      "Ġcommer": 5673,
      "Index": 5674,
      "ĠSugg": 5675,
      "ĠWithout": 5676,
      "RS": 5677,
      "TS": 5678,
      "brid": 5679,
      "greg": 5680,
      "iver": 5681,
      "mb": 5682,
      "Ġtone": 5683,
      "allow": 5684,
      "Ġprovince": 5685,
      "ĠBrand": 5686,
      "locity": 5687,
      "ĠTicker": 5688,
      "ĠFR": 5689,
      "izz": 5690,
      "Ġmaintain": 5691,
      "ĠZip": 5692,
      "social": 5693,
      "ĠAdditionally": 5694,
      "rabic": 5695,
      "anchester": 5696,
      "Access": 5697,
      "Book": 5698,
      "Int": 5699,
      "Ġru": 5700,
      "ĠSend": 5701,
      "lood": 5702,
      "ĠDirect": 5703,
      "emp": 5704,
      "izer": 5705,
      "Ġ300": 5706,
      "Ġphilos": 5707,
      "ĠProject": 5708,
      "Ġsummari": 5709,
      "Ġrisks": 5710,
      "ĠService": 5711,
      "Ġsmart": 5712,
      "Ġmeeting": 5713,
      "ij": 5714,
      "pient": 5715,
      "Ġpatterns": 5716,
      "Ġmachine": 5717,
      "Ġgold": 5718,
      "Ġdecimal": 5719,
      "ĠFlow": 5720,
      "ĠGrowth": 5721,
      "ocket": 5722,
      "Ġkeys": 5723,
      "travel": 5724,
      "ancer": 5725,
      "Ġpostcode": 5726,
      "Ġbetting": 5727,
      "Ġaffe": 5728,
      "Ġbreed": 5729,
      "Ġrecipient": 5730,
      "Ġ192": 5731,
      "porary": 5732,
      "Ġindust": 5733,
      "Ġprivacy": 5734,
      "Ġmisunder": 5735,
      "Ġguidance": 5736,
      "History": 5737,
      "zing": 5738,
      "Ġice": 5739,
      "Ġinfer": 5740,
      "Ġmodern": 5741,
      "ĠMar": 5742,
      "ĠFl": 5743,
      "Ġpoem": 5744,
      "getF": 5745,
      "Ġsufficient": 5746,
      "dentity": 5747,
      "Ġfeature": 5748,
      "Ġrespons": 5749,
      "prehe": 5750,
      "Ġassessment": 5751,
      "Ġshares": 5752,
      "ĠSimilarly": 5753,
      "Method": 5754,
      "odiac": 5755,
      "And": 5756,
      "LL": 5757,
      "Sort": 5758,
      "Ġ.": 5759,
      "Ġfail": 5760,
      "ethereum": 5761,
      "Ġeco": 5762,
      "Ġevening": 5763,
      "Ġaspects": 5764,
      "ĠMX": 5765,
      "ĠEU": 5766,
      "ĠFact": 5767,
      "Ġfloats": 5768,
      "reshold": 5769,
      "Ġlabel": 5770,
      "Ġelectric": 5771,
      "Ġevaluate": 5772,
      "Europe": 5773,
      "Ne": 5774,
      "open": 5775,
      "vat": 5776,
      "redd": 5777,
      "Ġfacts": 5778,
      "Ġbrow": 5779,
      "ulate": 5780,
      "Ġchampion": 5781,
      "Ġquantity": 5782,
      "ĠStats": 5783,
      "Ġspell": 5784,
      "ĠStocks": 5785,
      "Ġsuccessfully": 5786,
      "Ġmovements": 5787,
      "ĠAsset": 5788,
      "aderboard": 5789,
      "Ġratio": 5790,
      "nStorage": 5791,
      "48": 5792,
      "Your": 5793,
      "false": 5794,
      "oss": 5795,
      "Ġnar": 5796,
      "Ġstudy": 5797,
      "ĠAvailability": 5798,
      "cean": 5799,
      "faulting": 5800,
      "ĠMovies": 5801,
      "Ġuseful": 5802,
      "itions": 5803,
      "ubai": 5804,
      "Ġstatements": 5805,
      "Ġdownloaded": 5806,
      "petition": 5807,
      "Ġoperations": 5808,
      "Ġconnection": 5809,
      "Ġculture": 5810,
      "iversity": 5811,
      "ĠInternational": 5812,
      "shortcode": 5813,
      "Ġdevelopment": 5814,
      "Japan": 5815,
      "daily": 5816,
      "hib": 5817,
      "ived": 5818,
      "system": 5819,
      "Ġ789": 5820,
      "aylor": 5821,
      "diction": 5822,
      "ĠLakers": 5823,
      "ĠPort": 5824,
      "Ġgeo": 5825,
      "duc": 5826,
      "Ġgeneration": 5827,
      "ĠStreet": 5828,
      ".\\\"},": 5829,
      "Ġparts": 5830,
      "Comp": 5831,
      "Ġbreakdown": 5832,
      "ĠFeb": 5833,
      "eleb": 5834,
      "pothe": 5835,
      "prehensive": 5836,
      "-%": 5837,
      "46": 5838,
      "Work": 5839,
      "Ġforward": 5840,
      "Ġnegative": 5841,
      "Ġdevices": 5842,
      "ĠGo": 5843,
      "ĠJFK": 5844,
      "arehouse": 5845,
      "ublication": 5846,
      "Ġaircraft": 5847,
      "ography": 5848,
      "Coin": 5849,
      "Ġintegers": 5850,
      "Ġepisode": 5851,
      "Ġmenu": 5852,
      "Ġhelps": 5853,
      "):\\": 5854,
      "Bu": 5855,
      "Ge": 5856,
      "Is": 5857,
      "Link": 5858,
      "Tesla": 5859,
      "Total": 5860,
      "Vers": 5861,
      "ees": 5862,
      "first": 5863,
      "Ġvenue": 5864,
      "Ġtier": 5865,
      "ically": 5866,
      "Ġdynam": 5867,
      "analyze": 5868,
      "quires": 5869,
      "Ġlate": 5870,
      "tention": 5871,
      "ruary": 5872,
      "ĠQues": 5873,
      "cule": 5874,
      "Ġrefle": 5875,
      "ronics": 5876,
      "ĠSEC": 5877,
      "Ġunderstanding": 5878,
      "Ġeffects": 5879,
      "Ġdeparture": 5880,
      "digit": 5881,
      "BB": 5882,
      "Fi": 5883,
      "doc": 5884,
      "gon": 5885,
      "num": 5886,
      "where": 5887,
      "Ġpare": 5888,
      "Ġbed": 5889,
      "itat": 5890,
      "ists": 5891,
      "ĠSO": 5892,
      "ĠTur": 5893,
      "Ġdefaulting": 5894,
      "ieve": 5895,
      "ourn": 5896,
      "tically": 5897,
      "ĠGiven": 5898,
      "access": 5899,
      "akani": 5900,
      "Ġsupplied": 5901,
      "ETF": 5902,
      "Ġskip": 5903,
      "Ġskills": 5904,
      "Ġtaken": 5905,
      "Ġsuggests": 5906,
      "outputsize": 5907,
      "Ġnearby": 5908,
      "ugust": 5909,
      "ĠAlbums": 5910,
      "Ġtrademark": 5911,
      "Di": 5912,
      "On": 5913,
      "pair": 5914,
      "\\\"?": 5915,
      "ĠAverage": 5916,
      "Ġsecurities": 5917,
      "ĠDraw": 5918,
      "ĠFree": 5919,
      "exic": 5920,
      "Content": 5921,
      "extra": 5922,
      "ĠMarkets": 5923,
      "IFA": 5924,
      "Ġcontracts": 5925,
      "Ġearthquakes": 5926,
      "nStorageTo": 5927,
      "Me": 5928,
      "South": 5929,
      "hood": 5930,
      "watch": 5931,
      "âĤ": 5932,
      "Ġcooking": 5933,
      "Ġpicture": 5934,
      "asin": 5935,
      "total": 5936,
      "ĠPol": 5937,
      "ĠPerson": 5938,
      "ĠRom": 5939,
      "emale": 5940,
      "ĠIns": 5941,
      "Ġcovers": 5942,
      "Ġcoverage": 5943,
      "Ġ26": 5944,
      "Ġdisposable": 5945,
      "Ġ80": 5946,
      "Ġdraft": 5947,
      "gypt": 5948,
      "Player": 5949,
      "Ġdecide": 5950,
      "ĠHTTP": 5951,
      "Ġlearn": 5952,
      "ospital": 5953,
      "ĠMonday": 5954,
      "ĠForex": 5955,
      "Ġoptimize": 5956,
      "Ġmisunderstanding": 5957,
      "iment": 5958,
      "mium": 5959,
      "sales": 5960,
      "reports": 5961,
      "Ġalp": 5962,
      "Ġhtt": 5963,
      "ĠBar": 5964,
      "ĠToday": 5965,
      "Ġability": 5966,
      "anga": 5967,
      "Ġmanually": 5968,
      "Ġenough": 5969,
      "Ġmetric": 5970,
      "Ġgoal": 5971,
      "Ġmethods": 5972,
      "Ġyesterday": 5973,
      "Organ": 5974,
      "Ġhttp": 5975,
      "Rel": 5976,
      "include": 5977,
      "Ġche": 5978,
      "itoring": 5979,
      "Ġlighting": 5980,
      "Ġeasy": 5981,
      "Ġusernames": 5982,
      "though": 5983,
      "rative": 5984,
      "ĠCre": 5985,
      "commerce": 5986,
      "Ġwasn": 5987,
      "MMDD": 5988,
      "Ġhandling": 5989,
      "Ġadvis": 5990,
      "minist": 5991,
      "Ġperiods": 5992,
      "Ġcapability": 5993,
      "brew": 5994,
      "login": 5995,
      "ĠServer": 5996,
      "novation": 5997,
      "ĠCentral": 5998,
      "ĠOptim": 5999,
      "Ġtalking": 6000,
      "ĠRatings": 6001,
      "Af": 6002,
      "Fin": 6003,
      "VR": 6004,
      "ga": 6005,
      "mount": 6006,
      "vol": 6007,
      "ĠShe": 6008,
      "ĠScra": 6009,
      "technology": 6010,
      "device": 6011,
      "ĠAzure": 6012,
      "ĠTournament": 6013,
      "pons": 6014,
      "ymn": 6015,
      "ĠOf": 6016,
      "Ġleft": 6017,
      "temperature": 6018,
      "ĠFinancial": 6019,
      "events": 6020,
      "League": 6021,
      "ĠWhois": 6022,
      "Ġenhance": 6023,
      "AM": 6024,
      "Documents": 6025,
      "GET": 6026,
      "Met": 6027,
      "only": 6028,
      "eto": 6029,
      "\\\")\\": 6030,
      "ĠSources": 6031,
      "sence": 6032,
      "ĠPublic": 6033,
      "ĠHockey": 6034,
      "exas": 6035,
      "Ġaggreg": 6036,
      "102": 6037,
      "photo": 6038,
      "issions": 6039,
      "Stand": 6040,
      "Ġinterpre": 6041,
      "Ġvalidity": 6042,
      "ĠðŁĮ": 6043,
      "Ġinsurance": 6044,
      "Ġrecommended": 6045,
      "Ġestablishment": 6046,
      "ĠOverview": 6047,
      "Ġdisease": 6048,
      "BO": 6049,
      "CE": 6050,
      "orth": 6051,
      "roid": 6052,
      "gent": 6053,
      "amage": 6054,
      "ĠLine": 6055,
      "ryption": 6056,
      "itecture": 6057,
      "String": 6058,
      "Ġcredentials": 6059,
      "Ġschema": 6060,
      "ĠImages": 6061,
      "ĠSeries": 6062,
      "Ġlaunch": 6063,
      "organization": 6064,
      "Last": 6065,
      "Over": 6066,
      "aud": 6067,
      "car": 6068,
      "mark": 6069,
      "ounc": 6070,
      "ndoe": 6071,
      "Ġbirth": 6072,
      "Ġrenew": 6073,
      "Ġmillion": 6074,
      "verter": 6075,
      "iration": 6076,
      "ĠMa": 6077,
      "ĠMac": 6078,
      "ĠPage": 6079,
      "ĠFil": 6080,
      "apters": 6081,
      "userId": 6082,
      "Ġchat": 6083,
      "unny": 6084,
      "imensions": 6085,
      "Storage": 6086,
      "ĠComments": 6087,
      "rows": 6088,
      "ohndoe": 6089,
      "Ġemployee": 6090,
      "Ġbroader": 6091,
      "Ġpartial": 6092,
      "hemical": 6093,
      "question": 6094,
      "Ġcompleted": 6095,
      "AI": 6096,
      "From": 6097,
      "GT": 6098,
      "maybe": 6099,
      "rateg": 6100,
      "stop": 6101,
      "petual": 6102,
      "Ġinjury": 6103,
      "ano": 6104,
      "ĠBet": 6105,
      "ĠUFC": 6106,
      "iews": 6107,
      "ĠRGB": 6108,
      "getG": 6109,
      "Ġ22": 6110,
      "Read": 6111,
      "INE": 6112,
      "Ġsignature": 6113,
      "Ġranges": 6114,
      "Ġpolicies": 6115,
      "storageName": 6116,
      "ĠClimate": 6117,
      "tificial": 6118,
      "ĠNFTs": 6119,
      "Ġwinning": 6120,
      "Ġanalyzing": 6121,
      "BN": 6122,
      "Task": 6123,
      "rial": 6124,
      "Ġpix": 6125,
      "Ġmil": 6126,
      "ays": 6127,
      "radius": 6128,
      "GetDocument": 6129,
      "ĠNHL": 6130,
      "ĠNCAA": 6131,
      "Ġquite": 6132,
      "Ġ28": 6133,
      "server": 6134,
      "phas": 6135,
      "Ġcorpus": 6136,
      "Ġpoli": 6137,
      "Ġaccuracy": 6138,
      "metric": 6139,
      "Region": 6140,
      "Ġshipment": 6141,
      "HTML": 6142,
      "59": 6143,
      "Card": 6144,
      "EA": 6145,
      "PR": 6146,
      "San": 6147,
      "avid": 6148,
      "fers": 6149,
      "job": 6150,
      "ypes": 6151,
      "inf": 6152,
      "inner": 6153,
      "ament": 6154,
      "Ġbillion": 6155,
      "ĠSystem": 6156,
      "ctu": 6157,
      "Ġhot": 6158,
      "loor": 6159,
      "ĠExtra": 6160,
      "Ġkm": 6161,
      "Ġ```": 6162,
      "Ġpharma": 6163,
      "ĠProperties": 6164,
      "ĠAnime": 6165,
      "Ġdegrees": 6166,
      "pothetical": 6167,
      "678": 6168,
      "97": 6169,
      "aim": 6170,
      "tail": 6171,
      "zA": 6172,
      "Ġtail": 6173,
      "Ġclo": 6174,
      "ilver": 6175,
      "fact": 6176,
      "Ġ1000": 6177,
      "nowledge": 6178,
      "ĠLevel": 6179,
      "ĠLeaderboard": 6180,
      "Analy": 6181,
      "ensive": 6182,
      "Ġmaterials": 6183,
      "Movie": 6184,
      "difficulty": 6185,
      "ederal": 6186,
      "Ġargument": 6187,
      "300": 6188,
      "ias": 6189,
      "mar": 6190,
      "relev": 6191,
      "Ġsites": 6192,
      "olute": 6193,
      "Ġign": 6194,
      "itr": 6195,
      "character": 6196,
      "Ġitself": 6197,
      "ĠDX": 6198,
      "Ġemploy": 6199,
      "ĠArticles": 6200,
      "rossing": 6201,
      "Ġvisit": 6202,
      "Ġlaws": 6203,
      "linkedin": 6204,
      "Ġprotein": 6205,
      "Ġratios": 6206,
      "ĠSupports": 6207,
      "Object": 6208,
      "CH": 6209,
      "Football": 6210,
      "Mean": 6211,
      "Note": 6212,
      "UU": 6213,
      "fr": 6214,
      "long": 6215,
      "inst": 6216,
      "Ġ\\\"/": 6217,
      "uted": 6218,
      "Ġholiday": 6219,
      "ĠMinecraft": 6220,
      "ĠRate": 6221,
      "Ġcomprehensive": 6222,
      "Ġsuitable": 6223,
      "Ġtypical": 6224,
      "ĠComp": 6225,
      "Ġresponded": 6226,
      "Ġvelocity": 6227,
      "ĠReddit": 6228,
      "ĠVerification": 6229,
      "performanceId": 6230,
      "abolism": 6231,
      "ĠFebruary": 6232,
      "Box": 6233,
      "Customer": 6234,
      "Risk": 6235,
      "Tim": 6236,
      "ade": 6237,
      "fund": 6238,
      "hy": 6239,
      "olding": 6240,
      "Ġwide": 6241,
      "annot": 6242,
      "ĠActive": 6243,
      "ĠAtt": 6244,
      "ĠCat": 6245,
      "Ġbehavior": 6246,
      "ĠLow": 6247,
      "ĠLab": 6248,
      "ĠMain": 6249,
      "Ġcompe": 6250,
      "ĠWCAG": 6251,
      "ĠGOOG": 6252,
      "Ġpreparing": 6253,
      "ĠInf": 6254,
      "Ġletter": 6255,
      "parting": 6256,
      "Ġago": 6257,
      "phy": 6258,
      "Ġrelig": 6259,
      "Channel": 6260,
      "ffee": 6261,
      "ĠAuthor": 6262,
      "ĠDescription": 6263,
      "Ġliquidity": 6264,
      "$$": 6265,
      "LA": 6266,
      "Loc": 6267,
      "Us": 6268,
      "`.": 6269,
      "aches": 6270,
      "creds": 6271,
      "pace": 6272,
      "uk": 6273,
      "Ġprin": 6274,
      "anji": 6275,
      "istrict": 6276,
      "ĠCalendar": 6277,
      "irmed": 6278,
      "ĠLiga": 6279,
      "agon": 6280,
      "Ġdeparting": 6281,
      "apon": 6282,
      "Ġdefined": 6283,
      "Ġmissed": 6284,
      "Ġsimulated": 6285,
      "creen": 6286,
      "Ġinternal": 6287,
      "Ġpractice": 6288,
      "Ġethical": 6289,
      "Ġestimate": 6290,
      "ĠForecast": 6291,
      "afety": 6292,
      "Ġautomatic": 6293,
      "%,": 6294,
      "OIS": 6295,
      "SF": 6296,
      "Ste": 6297,
      "Script": 6298,
      "Word": 6299,
      "`)": 6300,
      "ences": 6301,
      "Ġ@": 6302,
      "onic": 6303,
      "real": 6304,
      "rip": 6305,
      "ris": 6306,
      "rictions": 6307,
      "ili": 6308,
      "ĠSte": 6309,
      "Ġprotocol": 6310,
      "ĠMexic": 6311,
      "ĠParameters": 6312,
      "Ġconsist": 6313,
      "Ġhaving": 6314,
      "Ġdepending": 6315,
      "Ġreturning": 6316,
      "Ġcomedy": 6317,
      "Ġ34": 6318,
      "Ġround": 6319,
      "Ġtrade": 6320,
      "Ġtraded": 6321,
      "played": 6322,
      "Ġfilings": 6323,
      "visions": 6324,
      "Ġprofit": 6325,
      "Ġhumor": 6326,
      "ĠPython": 6327,
      "ughal": 6328,
      "Ġcommercial": 6329,
      "*,": 6330,
      "800": 6331,
      "hips": 6332,
      "nes": 6333,
      "oom": 6334,
      "oper": 6335,
      "oices": 6336,
      "icity": 6337,
      "ĠCup": 6338,
      "Ġsoci": 6339,
      "Ġanti": 6340,
      "ĠMun": 6341,
      "Ġheart": 6342,
      "ĠOnce": 6343,
      "osition": 6344,
      "useum": 6345,
      "ĠNove": 6346,
      "Ġfiling": 6347,
      "skip": 6348,
      "Ġrestaurants": 6349,
      "Ġloan": 6350,
      "Ġestimated": 6351,
      "Ġvalistringd": 6352,
      "ugby": 6353,
      "InStorageTo": 6354,
      "Match": 6355,
      "Title": 6356,
      "sters": 6357,
      "Ġfresh": 6358,
      "Ġpuzz": 6359,
      "alax": 6360,
      "Ġdrug": 6361,
      "ĠIN": 6362,
      "ĠIce": 6363,
      "perpetual": 6364,
      "Ġongoing": 6365,
      "Ġanim": 6366,
      "Ġresolution": 6367,
      "ĠDubai": 6368,
      "ĠEns": 6369,
      "orrent": 6370,
      "ĠĠĠĠĠĠ": 6371,
      "Ġuntil": 6372,
      "ĠKing": 6373,
      "regist": 6374,
      "Ġdivers": 6375,
      "Ġconfused": 6376,
      "Ġfacilities": 6377,
      "ICS": 6378,
      "ĠSeasons": 6379,
      "Ġoccurre": 6380,
      "itrous": 6381,
      "ĠNovember": 6382,
      "Car": 6383,
      "Par": 6384,
      "__": 6385,
      "aci": 6386,
      "iting": 6387,
      "sample": 6388,
      "yout": 6389,
      "reater": 6390,
      "ida": 6391,
      "ĠSk": 6392,
      "Ġnearest": 6393,
      "ĠHotel": 6394,
      "weather": 6395,
      "Ġtranslations": 6396,
      "ĠPhoto": 6397,
      "ĠEarnings": 6398,
      "Ġbenefits": 6399,
      "52": 6400,
      "Los": 6401,
      "Mod": 6402,
      "RI": 6403,
      "URL": 6404,
      "Vis": 6405,
      "mand": 6406,
      "volution": 6407,
      "Ġ}\\": 6408,
      "ĠIS": 6409,
      "challenge": 6410,
      "ĠAugust": 6411,
      "amps": 6412,
      "ĠTotal": 6413,
      "ests": 6414,
      "ĠHar": 6415,
      "Ġassumption": 6416,
      "phones": 6417,
      "itize": 6418,
      "Ġsimpl": 6419,
      "Ġexplaining": 6420,
      "Ġpet": 6421,
      "ĠRegion": 6422,
      "Ġdepth": 6423,
      "```\\": 6424,
      "ĠEmpire": 6425,
      "Ġlyrics": 6426,
      "Business": 6427,
      "CC": 6428,
      "download": 6429,
      "fine": 6430,
      "iques": 6431,
      "Ġslow": 6432,
      "stream": 6433,
      "alog": 6434,
      "umes": 6435,
      "ĠLog": 6436,
      "ngredient": 6437,
      "ĠTag": 6438,
      "ĠTax": 6439,
      "Ġexport": 6440,
      "Ġchicken": 6441,
      "ranking": 6442,
      "nOther": 6443,
      "Ġimplies": 6444,
      "Ġroad": 6445,
      "Comma": 6446,
      "playlist": 6447,
      "Ġlooks": 6448,
      "uidelines": 6449,
      "Ġcarri": 6450,
      "Ġdrama": 6451,
      "Ġgoods": 6452,
      "cedure": 6453,
      "Ġwriting": 6454,
      "EFA": 6455,
      "BR": 6456,
      "Gen": 6457,
      "MP": 6458,
      "Sign": 6459,
      "pact": 6460,
      "Ġcou": 6461,
      "Ġcorre": 6462,
      "stars": 6463,
      "chat": 6464,
      "fare": 6465,
      "ĠWest": 6466,
      "exp": 6467,
      "putation": 6468,
      "Ġcolle": 6469,
      "Ġcollabor": 6470,
      "opher": 6471,
      "Ġcapacity": 6472,
      "Ġsubject": 6473,
      "Ġ90": 6474,
      "error": 6475,
      "novations": 6476,
      "Ġentity": 6477,
      "ĠRecipes": 6478,
      "provider": 6479,
      "youtube": 6480,
      "Uid": 6481,
      "sn": 6482,
      "volume": 6483,
      "erlin": 6484,
      "Ġcatch": 6485,
      "structure": 6486,
      "riday": 6487,
      "Ġlarg": 6488,
      "html": 6489,
      "ountain": 6490,
      "Ġraw": 6491,
      "timate": 6492,
      "ĠConf": 6493,
      "chnical": 6494,
      "Ġexpiration": 6495,
      "Ġrespectively": 6496,
      "requent": 6497,
      "ĠValue": 6498,
      "ĠCollections": 6499,
      "Ġcommodities": 6500,
      "Ġ\"^\\\\": 6501,
      "Ġgovernment": 6502,
      "owntown": 6503,
      "World": 6504,
      "sy": 6505,
      "world": 6506,
      "Ġcategor": 6507,
      "Ġfr": 6508,
      "Ġfriend": 6509,
      "rival": 6510,
      "cha": 6511,
      "Ġmeme": 6512,
      "vide": 6513,
      "ĠDri": 6514,
      "0001": 6515,
      "Ġabbreviation": 6516,
      "ogram": 6517,
      "012": 6518,
      "Information": 6519,
      "Ġregional": 6520,
      "titude": 6521,
      "show": 6522,
      "Ġexpression": 6523,
      "porate": 6524,
      "Ġadjusted": 6525,
      "Ġdepends": 6526,
      "ĠOffers": 6527,
      "Ġexercise": 6528,
      "reddit": 6529,
      "601": 6530,
      "Item": 6531,
      "Public": 6532,
      "pub": 6533,
      "tten": 6534,
      "ertil": 6535,
      "Ġciti": 6536,
      "Ġcertific": 6537,
      "rich": 6538,
      "Ġball": 6539,
      "desc": 6540,
      "utri": 6541,
      "depart": 6542,
      "send": 6543,
      "celer": 6544,
      "ĠPar": 6545,
      "Ġdensity": 6546,
      "ĠEgypt": 6547,
      "pool": 6548,
      "division": 6549,
      "Ġleast": 6550,
      "apshot": 6551,
      "ĠStream": 6552,
      "ighter": 6553,
      "riginal": 6554,
      "Ġ639": 6555,
      "nYou": 6556,
      "Ġdistribution": 6557,
      "ayern": 6558,
      "idential": 6559,
      "Ġadvanced": 6560,
      "Ġexecu": 6561,
      "ĠGreece": 6562,
      "Americ": 6563,
      "Next": 6564,
      "TO": 6565,
      "Trending": 6566,
      "aving": 6567,
      "family": 6568,
      "Ġpaper": 6569,
      "Ġsectors": 6570,
      "fort": 6571,
      "ĠDetail": 6572,
      "Ġleg": 6573,
      "ipment": 6574,
      "Ġtraits": 6575,
      "Ġdoing": 6576,
      "ĠChallenge": 6577,
      "Ġcounts": 6578,
      "ĠApps": 6579,
      "checking": 6580,
      "Ġsurg": 6581,
      "Ġlaw": 6582,
      "Ġgiving": 6583,
      "Ġwritten": 6584,
      "generate": 6585,
      "ĠCapital": 6586,
      "agnosis": 6587,
      "ĠTools": 6588,
      "Availability": 6589,
      "DX": 6590,
      "een": 6591,
      "png": 6592,
      "vari": 6593,
      "\\\").": 6594,
      "Ġdictionary": 6595,
      "Ġbig": 6596,
      "Ġmood": 6597,
      "Ġ(\\\"": 6598,
      "ĠFIFA": 6599,
      "Ġcolors": 6600,
      "Ġconfig": 6601,
      "omet": 6602,
      "posure": 6603,
      "Canada": 6604,
      "idered": 6605,
      "Ġcapture": 6606,
      "Ġconsidered": 6607,
      "ĠðŁİ": 6608,
      "Specifies": 6609,
      "return": 6610,
      "Ġstyles": 6611,
      "Ġparticularly": 6612,
      "ĠContacts": 6613,
      "Simulated": 6614,
      "Server": 6615,
      "Ġnotification": 6616,
      "ixtures": 6617,
      "straints": 6618,
      "ĠRetrie": 6619,
      "Gu": 6620,
      "aff": 6621,
      "map": 6622,
      "wins": 6623,
      "inating": 6624,
      "ĠIMD": 6625,
      "ĠSchool": 6626,
      "ĠArabic": 6627,
      "abled": 6628,
      "ĠLibrary": 6629,
      ":\\\\": 6630,
      "Ġmomentum": 6631,
      "financial": 6632,
      "ĠDevice": 6633,
      "Ġinvoke": 6634,
      "ĠIndic": 6635,
      "Ġcarbon": 6636,
      "Ġconversions": 6637,
      "ropical": 6638,
      "ĠPostal": 6639,
      "Ġencoded": 6640,
      "ĠWHOIS": 6641,
      "Iata": 6642,
      "Ment": 6643,
      "Ġsw": 6644,
      "Ġsol": 6645,
      "alities": 6646,
      "Ġmail": 6647,
      "annual": 6648,
      "ĠSur": 6649,
      "ĠLatin": 6650,
      "ĠMin": 6651,
      "Ġsafer": 6652,
      "rightness": 6653,
      "lists": 6654,
      "startDate": 6655,
      "Ġmeta": 6656,
      "Ġcrime": 6657,
      "Ġshared": 6658,
      "ĠKeyword": 6659,
      "lands": 6660,
      "Ġcompetitions": 6661,
      "Color": 6662,
      "ĠEndpoint": 6663,
      "ĠRestaurant": 6664,
      "Ġcrucial": 6665,
      "EX": 6666,
      "Net": 6667,
      "Policy": 6668,
      "cr": 6669,
      "site": 6670,
      "inship": 6671,
      "Ġremove": 6672,
      "ĠSn": 6673,
      "ĠSales": 6674,
      "pers": 6675,
      "olecule": 6676,
      "Ġanimal": 6677,
      "Ġotherwise": 6678,
      "botics": 6679,
      "Ġconfl": 6680,
      "ĠResult": 6681,
      "...\\\",": 6682,
      "Ġstores": 6683,
      "Ġplaceholders": 6684,
      "Ġloy": 6685,
      "nSea": 6686,
      "alaxy": 6687,
      ":%": 6688,
      "Final": 6689,
      "ec": 6690,
      "global": 6691,
      "ja": 6692,
      "rink": 6693,
      "Ġpres": 6694,
      "icode": 6695,
      "urring": 6696,
      "ĠNotes": 6697,
      "comes": 6698,
      "Ġemer": 6699,
      "Ġgenerates": 6700,
      "Ġroles": 6701,
      "ĠReviews": 6702,
      "viously": 6703,
      "Ġpaging": 6704,
      "ĠĠĠĠĠĠĠĠĠĠĠ": 6705,
      "Ġspot": 6706,
      "Ġcompound": 6707,
      "ĠToken": 6708,
      "ĠAuto": 6709,
      "gorithms": 6710,
      "Account": 6711,
      "ĠNetflix": 6712,
      "Ġupstringd": 6713,
      "alloween": 6714,
      "Line": 6715,
      "Mon": 6716,
      "QL": 6717,
      "Red": 6718,
      "Tem": 6719,
      "distance": 6720,
      "vanced": 6721,
      "}/": 6722,
      "instagram": 6723,
      "income": 6724,
      "Ġsit": 6725,
      "icon": 6726,
      "Ġlicense": 6727,
      "ising": 6728,
      "Ġhit": 6729,
      "ĠAt": 6730,
      "img": 6731,
      "ĠNational": 6732,
      "Ġjohn": 6733,
      "Ġcopy": 6734,
      "earning": 6735,
      "Ġunrelated": 6736,
      "ĠðŁĵ": 6737,
      "ential": 6738,
      "Ġnetworks": 6739,
      "Ġreflect": 6740,
      "ronic": 6741,
      "ĠHebrew": 6742,
      "ĠWhile": 6743,
      "andscape": 6744,
      "Ġfitness": 6745,
      "Output": 6746,
      "onyms": 6747,
      "Ġfluctu": 6748,
      "Ġbullet": 6749,
      "98765": 6750,
      "Ethereum": 6751,
      "TE": 6752,
      "essel": 6753,
      "Ġfan": 6754,
      "alph": 6755,
      "Ġidentity": 6756,
      "used": 6757,
      "Ġrender": 6758,
      "ĠSM": 6759,
      "**.\\": 6760,
      "pecial": 6761,
      "Ġ120": 6762,
      "agraph": 6763,
      "ĠFile": 6764,
      "ĠFriday": 6765,
      "ĠOwn": 6766,
      "areer": 6767,
      "nNone": 6768,
      "Ġobser": 6769,
      "Ġexpand": 6770,
      "Ġprocessed": 6771,
      "Ġtranslated": 6772,
      "yyyy": 6773,
      "ĠETFs": 6774,
      "losed": 6775,
      "ĠOpenSea": 6776,
      "Mode": 6777,
      "bn": 6778,
      "nting": 6779,
      "options": 6780,
      "Ġath": 6781,
      "Ġsci": 6782,
      "olf": 6783,
      "Ġicon": 6784,
      "ĠiPhone": 6785,
      "iler": 6786,
      "Ġeconomy": 6787,
      "Ġ(`": 6788,
      "ĠMars": 6789,
      "ĠGDP": 6790,
      "getL": 6791,
      "ĠRel": 6792,
      "ĠCompanies": 6793,
      "Ġdocumentation": 6794,
      "ĠAnaly": 6795,
      "Ġindicates": 6796,
      "witch": 6797,
      "offs": 6798,
      "Ġcentral": 6799,
      "Ġmedication": 6800,
      "Ġadvertising": 6801,
      "Ġderiv": 6802,
      "Dete": 6803,
      "GS": 6804,
      "ho": 6805,
      "nem": 6806,
      "west": 6807,
      "yes": 6808,
      "release": 6809,
      "Ġsound": 6810,
      "Ġscope": 6811,
      "Ġput": 6812,
      "Ġpublished": 6813,
      "iters": 6814,
      "Ġmer": 6815,
      "Ġmicro": 6816,
      "Ġeye": 6817,
      "defin": 6818,
      "Ġhab": 6819,
      "sever": 6820,
      "Ġglo": 6821,
      "rapy": 6822,
      "verages": 6823,
      "ulture": 6824,
      "ĠEast": 6825,
      "getB": 6826,
      "ĠOsc": 6827,
      "Ġrather": 6828,
      "Ġexpress": 6829,
      "Ġprocessing": 6830,
      "cluding": 6831,
      "Ġprediction": 6832,
      "Regist": 6833,
      "Ġshipping": 6834,
      "Ġreasonable": 6835,
      "Ġextraction": 6836,
      "tinent": 6837,
      "Ġbarcode": 6838,
      "ĠEnsure": 6839,
      "johndoe": 6840,
      "wo": 6841,
      "oron": 6842,
      "Ġfine": 6843,
      "Ġface": 6844,
      "astic": 6845,
      "chart": 6846,
      "Ġstatis": 6847,
      "rade": 6848,
      "ĠTexas": 6849,
      "Ġconstraints": 6850,
      "aged": 6851,
      "agers": 6852,
      "ĠNext": 6853,
      "ĠGreatest": 6854,
      "ocktail": 6855,
      "ĠRecent": 6856,
      "Ġidentified": 6857,
      "ermark": 6858,
      "ello": 6859,
      "ĠExp": 6860,
      "Ġpassing": 6861,
      "Ġsignals": 6862,
      "hicles": 6863,
      "ribute": 6864,
      "Default": 6865,
      "ĠRegions": 6866,
      "74": 6867,
      "DI": 6868,
      "David": 6869,
      "gas": 6870,
      "lf": 6871,
      "lighting": 6872,
      "sion": 6873,
      "wa": 6874,
      "tial": 6875,
      "Ġnavig": 6876,
      "ĠSport": 6877,
      "Ġstreet": 6878,
      "person": 6879,
      "Ġgram": 6880,
      "Ġmem": 6881,
      "Ġvi": 6882,
      "Ġtrades": 6883,
      "ĠYYYYMMDD": 6884,
      "Ġconverts": 6885,
      "ByName": 6886,
      "Ġinternet": 6887,
      "spot": 6888,
      "Ġreasons": 6889,
      "Ġbedrooms": 6890,
      "Free": 6891,
      "Message": 6892,
      "Species": 6893,
      "Today": 6894,
      "Wel": 6895,
      "frequency": 6896,
      "sur": 6897,
      "src": 6898,
      "wood": 6899,
      "Ã©": 6900,
      "Ġcars": 6901,
      "Ġwins": 6902,
      "quantity": 6903,
      "ilt": 6904,
      "ĠSal": 6905,
      "Ġgrid": 6906,
      "losses": 6907,
      "ĠThai": 6908,
      "Ġ'/": 6909,
      "ĠNote": 6910,
      "occer": 6911,
      "plits": 6912,
      "Ġspecifications": 6913,
      "Ġupgrade": 6914,
      "ards": 6915,
      "Instagram": 6916,
      "Real": 6917,
      "otels": 6918,
      "ĠPlan": 6919,
      "ĠSeeking": 6920,
      "Ġ1234": 6921,
      "Ġspaces": 6922,
      "arging": 6923,
      "ĠBeach": 6924,
      "Ġaccepts": 6925,
      "astern": 6926,
      "ridge": 6927,
      "ĠAMZN": 6928,
      "agnitude": 6929,
      "vinces": 6930,
      "Ġhappening": 6931,
      "Ġappear": 6932,
      "ĠBaseball": 6933,
      "ĠDividend": 6934,
      "Ġreleases": 6935,
      "'?\"},": 6936,
      "82": 6937,
      "Open": 6938,
      "lap": 6939,
      "|----------------": 6940,
      "Ġold": 6941,
      "hema": 6942,
      "Ġceleb": 6943,
      "Ġfra": 6944,
      "Ġmass": 6945,
      "ĠSha": 6946,
      "Ġgather": 6947,
      "agent": 6948,
      "ĠTrends": 6949,
      "ĠMorning": 6950,
      "ĠVolume": 6951,
      "Ġcome": 6952,
      "Ġ37": 6953,
      "Ġridd": 6954,
      "Ġinformative": 6955,
      "Ġstandards": 6956,
      "ĠShould": 6957,
      "sortBy": 6958,
      "Ġguess": 6959,
      "Length": 6960,
      "Ġfocused": 6961,
      "Ġexperiences": 6962,
      "chedules": 6963,
      "Ġplaylists": 6964,
      "Ġideas": 6965,
      "ĠValidation": 6966,
      "Ġfunny": 6967,
      "Ġepisodes": 6968,
      "ĠNAICS": 6969,
      "contact": 6970,
      "Ġfamous": 6971,
      "Ġassigned": 6972,
      "Ġindeed": 6973,
      "400": 6974,
      "Bitcoin": 6975,
      "CSV": 6976,
      "even": 6977,
      "tags": 6978,
      "Ġsus": 6979,
      "Ġsun": 6980,
      "Ġfasc": 6981,
      "alk": 6982,
      "quirements": 6983,
      "dered": 6984,
      "ceu": 6985,
      "Ġtoolset": 6986,
      "Ġneeding": 6987,
      "ĠTags": 6988,
      "unk": 6989,
      "ĠVR": 6990,
      "Ġletters": 6991,
      "Ġraces": 6992,
      "Ġanalytics": 6993,
      "Ġconfidence": 6994,
      "Ġconfirmed": 6995,
      "ĠTech": 6996,
      "regions": 6997,
      "ĠXYZ": 6998,
      "Arch": 6999,
      "0210": 7000,
      "ographical": 7001,
      "Web": 7002,
      "Ġreceiver": 7003,
      "ĠNYC": 7004,
      "Ġregulations": 7005,
      "Ġsavings": 7006,
      "ĠOntario": 7007,
      "ĠSwift": 7008,
      "43210": 7009,
      "ĠMunich": 7010,
      "84": 7011,
      "FI": 7012,
      "bi": 7013,
      "cookie": 7014,
      "ktop": 7015,
      "phe": 7016,
      "policy": 7017,
      "rar": 7018,
      "scription": 7019,
      "ximate": 7020,
      "Ġtutorial": 7021,
      "Ġast": 7022,
      "Ġtheme": 7023,
      "Ġsale": 7024,
      "Ġsounds": 7025,
      "rity": 7026,
      "Ġpit": 7027,
      "Ġporn": 7028,
      "Ġdive": 7029,
      "vehicle": 7030,
      "dening": 7031,
      "Ġyield": 7032,
      "Ġbeh": 7033,
      "ĠDNA": 7034,
      "imilar": 7035,
      "resource": 7036,
      "Ġemphas": 7037,
      "Ġ32": 7038,
      "Ġ29": 7039,
      "Ġoutside": 7040,
      "lestick": 7041,
      "Ġalternative": 7042,
      "Ġcalculates": 7043,
      "Ġearly": 7044,
      "numbers": 7045,
      "monthly": 7046,
      "ĠUUIDs": 7047,
      "Ġsignificantly": 7048,
      "tracks": 7049,
      "Ġlabels": 7050,
      "urchase": 7051,
      "Ġpixels": 7052,
      "41": 7053,
      "Ab": 7054,
      "London": 7055,
      "MO": 7056,
      "ape": 7057,
      "cor": 7058,
      "tcha": 7059,
      "station": 7060,
      "types": 7061,
      "Ġwat": 7062,
      "anity": 7063,
      "rain": 7064,
      "Ġshor": 7065,
      "Ġexam": 7066,
      "ĠPark": 7067,
      "ĠPAN": 7068,
      "ortg": 7069,
      "ĠDetection": 7070,
      "apchat": 7071,
      "acting": 7072,
      "activity": 7073,
      "ĠChampion": 7074,
      "Ġaccessible": 7075,
      "Record": 7076,
      "ibes": 7077,
      "ĠPlatform": 7078,
      "Ġzero": 7079,
      "Research": 7080,
      "Ġrefine": 7081,
      "Ġagents": 7082,
      "Ġinvestors": 7083,
      "postal": 7084,
      "Weather": 7085,
      "Ġphrases": 7086,
      "pendent": 7087,
      "ĠannotationId": 7088,
      "ĠGBP": 7089,
      "ĠGreek": 7090,
      "Ġnotifications": 7091,
      "Delivery": 7092,
      "draws": 7093,
      "Ġpieces": 7094,
      "Ġloyalty": 7095,
      "!\\\"": 7096,
      "Estim": 7097,
      "First": 7098,
      "Food": 7099,
      "Please": 7100,
      "System": 7101,
      "VIN": 7102,
      "fi": 7103,
      "star": 7104,
      "Ġbatch": 7105,
      "uture": 7106,
      "omo": 7107,
      "Ġmeasures": 7108,
      "ĠMost": 7109,
      "userid": 7110,
      "Ġdescending": 7111,
      "ĠInvest": 7112,
      "ometers": 7113,
      "Ġtransportation": 7114,
      "client": 7115,
      "Ġworksh": 7116,
      "Ġsimulation": 7117,
      "cret": 7118,
      "ĠPreviously": 7119,
      "Ġownership": 7120,
      "Ġattack": 7121,
      "Ġapplications": 7122,
      "popular": 7123,
      "Ġcenter": 7124,
      "Ġthoughts": 7125,
      "Ġattributes": 7126,
      "ĠListings": 7127,
      "nemonic": 7128,
      "70": 7129,
      "Correct": 7130,
      "DB": 7131,
      "MX": 7132,
      "Test": 7133,
      "ancy": 7134,
      "bitcoin": 7135,
      "campaign": 7136,
      "fest": 7137,
      "hing": 7138,
      "school": 7139,
      "Ġack": 7140,
      "estion": 7141,
      "Ġbill": 7142,
      "design": 7143,
      "iture": 7144,
      "gene": 7145,
      "genti": 7146,
      "gecoin": 7147,
      "ctural": 7148,
      "Ġbelow": 7149,
      "ĠBlack": 7150,
      "ĠHin": 7151,
      "Ġpool": 7152,
      "Ġimplement": 7153,
      "ĠOdds": 7154,
      "Ġemissions": 7155,
      "Ġidentifiers": 7156,
      "Ġclaim": 7157,
      "ĠConverter": 7158,
      "Ġmission": 7159,
      "Ġinstitu": 7160,
      "Exp": 7161,
      "Ġdistrict": 7162,
      "ĠGeneration": 7163,
      "Ġgradient": 7164,
      "Ġhypothetical": 7165,
      "ĠManagement": 7166,
      "arrier": 7167,
      "Ġcompared": 7168,
      "Ġsensor": 7169,
      "hemistry": 7170,
      "ĠJavaScript": 7171,
      "ĠConsider": 7172,
      "Ġambiguous": 7173,
      "Ġalphab": 7174,
      "?\\\",": 7175,
      "AB": 7176,
      "GOOG": 7177,
      "My": 7178,
      "pin": 7179,
      "payment": 7180,
      "Ġ..": 7181,
      "Ġtip": 7182,
      "roc": 7183,
      "anol": 7184,
      "Ġsoil": 7185,
      "abbreviation": 7186,
      "ĠBI": 7187,
      "ĠMakani": 7188,
      "ĠRot": 7189,
      "Ġplus": 7190,
      "Ġprefix": 7191,
      "acing": 7192,
      "Ġ35": 7193,
      "Ġ52": 7194,
      "Ġthemes": 7195,
      "Ġtransfer": 7196,
      "rowing": 7197,
      "Ġverified": 7198,
      "teamId": 7199,
      "ĠsecurityId": 7200,
      "Ġformula": 7201,
      "Ġindividuals": 7202,
      "Ġdetect": 7203,
      "Ġpackage": 7204,
      "ĠVisual": 7205,
      "facebook": 7206,
      "ĠLotto": 7207,
      "Ġsyntax": 7208,
      "IataCode": 7209,
      "CL": 7210,
      "CN": 7211,
      "Tag": 7212,
      "gl": 7213,
      "|--------": 7214,
      "Ġ>": 7215,
      "Ġtreatment": 7216,
      "Ġfingerprint": 7217,
      "alf": 7218,
      "ĠId": 7219,
      "ĠSure": 7220,
      "ĠSource": 7221,
      "ĠAccess": 7222,
      "Ġsequences": 7223,
      "Ġconference": 7224,
      "plications": 7225,
      "arios": 7226,
      "ublish": 7227,
      "ender": 7228,
      "Ġexpenses": 7229,
      "Ġ09": 7230,
      "posit": 7231,
      "template": 7232,
      "lightly": 7233,
      "Ġenjoy": 7234,
      "Ġdisco": 7235,
      "Ġcompati": 7236,
      "ovement": 7237,
      "munity": 7238,
      "ĠBecause": 7239,
      "Ġdigit": 7240,
      "Ġmembers": 7241,
      "ixture": 7242,
      "Ġtrust": 7243,
      "ĠOptimism": 7244,
      "Ġalphabe": 7245,
      ")?": 7246,
      "Day": 7247,
      "Eng": 7248,
      "Java": 7249,
      "Lab": 7250,
      "Twitter": 7251,
      "Ġach": 7252,
      "attery": 7253,
      "Ġpublication": 7254,
      "using": 7255,
      "Ġrent": 7256,
      "ĠIngredient": 7257,
      "Ġlayout": 7258,
      "gender": 7259,
      "Ġstru": 7260,
      "Ġstop": 7261,
      "rance": 7262,
      "ĠCase": 7263,
      "ĠBank": 7264,
      "ĠHome": 7265,
      "ĠHashtag": 7266,
      "apt": 7267,
      "Ġtimeline": 7268,
      "vian": 7269,
      "posal": 7270,
      "Ġscheme": 7271,
      "Ġendpoints": 7272,
      "entific": 7273,
      "Ġsummaries": 7274,
      "Ġwebhook": 7275,
      "DEX": 7276,
      "Website": 7277,
      "Ġconfusion": 7278,
      "Ġreduce": 7279,
      "after": 7280,
      "Ġeducational": 7281,
      "Software": 7282,
      "Symbols": 7283,
      "Ġreliable": 7284,
      "Ġnormal": 7285,
      "Ġinstallation": 7286,
      "azine": 7287,
      "ĠMexico": 7288,
      "celeration": 7289,
      "96": 7290,
      "Database": 7291,
      "Fe": 7292,
      "Sk": 7293,
      "holder": 7294,
      "sale": 7295,
      "xml": 7296,
      "heast": 7297,
      "Ġtouri": 7298,
      "Ġfrequent": 7299,
      "Ġdimensions": 7300,
      "ĠSummer": 7301,
      "chan": 7302,
      "Ġselect": 7303,
      "ĠPNG": 7304,
      "adian": 7305,
      "Ġgenerally": 7306,
      "Ġ27": 7307,
      "Ġservers": 7308,
      "Ġconsumer": 7309,
      "Ġvariable": 7310,
      "Ġtemplates": 7311,
      "Ġinvestments": 7312,
      "Ġclassic": 7313,
      "ĠESG": 7314,
      "Ġsnapshot": 7315,
      "Ġexecute": 7316,
      "Ġautomatically": 7317,
      "Frame": 7318,
      "NT": 7319,
      "UTC": 7320,
      "ao": 7321,
      "vacy": 7322,
      "Ġprint": 7323,
      "Ġdrop": 7324,
      "ires": 7325,
      "Ġthing": 7326,
      "ision": 7327,
      "Ġgreen": 7328,
      "race": 7329,
      "Ġself": 7330,
      "ĠCost": 7331,
      "Ġordered": 7332,
      "ĠFutures": 7333,
      "resources": 7334,
      "urniture": 7335,
      "ĠRequired": 7336,
      "Ġplayed": 7337,
      "Ġconflic": 7338,
      "ĠIPL": 7339,
      "Ġpaginated": 7340,
      "Ġparagraph": 7341,
      "ĠShare": 7342,
      "Ġrestrictions": 7343,
      "Ġsentences": 7344,
      "ĠClass": 7345,
      "ahoo": 7346,
      "Ġclasses": 7347,
      "ĠSpain": 7348,
      "Ġsignificance": 7349,
      "ĠUUIDv": 7350,
      "Autocomplete": 7351,
      "Ġethics": 7352,
      "Ġenvironmental": 7353,
      "Ġlowercase": 7354,
      "Ġinvolves": 7355,
      "Ġinvolved": 7356,
      "hibition": 7357,
      "alpha": 7358,
      "AL": 7359,
      "Fund": 7360,
      "IO": 7361,
      "MF": 7362,
      "NASDAQ": 7363,
      "Nursing": 7364,
      "SI": 7365,
      "dp": 7366,
      "movies": 7367,
      "ophy": 7368,
      "torrent": 7369,
      "requires": 7370,
      "Ġcancel": 7371,
      "Ġpain": 7372,
      "tyle": 7373,
      "usion": 7374,
      "ulner": 7375,
      "asual": 7376,
      "Ġsell": 7377,
      "ĠBl": 7378,
      "ĠBerlin": 7379,
      "ĠFind": 7380,
      "ympt": 7381,
      "ĠGood": 7382,
      "ĠJoke": 7383,
      "Ġkind": 7384,
      "Ġplaying": 7385,
      "nAss": 7386,
      "128": 7387,
      "Ġsigns": 7388,
      "Ġminimal": 7389,
      "preci": 7390,
      "Ġlogistics": 7391,
      "Ġshowing": 7392,
      "ĠCoins": 7393,
      "abcdef": 7394,
      "ĠValistring": 7395,
      "Ġreading": 7396,
      "Ġroutine": 7397,
      "ĠHighlights": 7398,
      "ethics": 7399,
      "fitness": 7400,
      "ĠInte": 7401,
      "Ġutil": 7402,
      "annotation": 7403,
      "Ġcitizen": 7404,
      "Mentor": 7405,
      "Ġriddle": 7406,
      "HA": 7407,
      "Max": 7408,
      "Song": 7409,
      "course": 7410,
      "fil": 7411,
      "swe": 7412,
      "soccer": 7413,
      "Ġcour": 7414,
      "Ġnational": 7415,
      "icated": 7416,
      "icago": 7417,
      "Ġble": 7418,
      "Ġbond": 7419,
      "Ġliter": 7420,
      "Ġthreshold": 7421,
      "Ġstrike": 7422,
      "Ġexc": 7423,
      "ĠHead": 7424,
      "Ġdeep": 7425,
      "Ġperformed": 7426,
      "Ġkit": 7427,
      "ĠGetDocument": 7428,
      "redits": 7429,
      "ĠChicago": 7430,
      "finance": 7431,
      "they": 7432,
      "Ġspeech": 7433,
      "ticket": 7434,
      "apikey": 7435,
      "ĠServices": 7436,
      "medium": 7437,
      "ĠGenerate": 7438,
      "555": 7439,
      "Ġincreasing": 7440,
      "overn": 7441,
      "Ġdriving": 7442,
      "Ġevaluation": 7443,
      "Ġcleaning": 7444,
      "ĠLocations": 7445,
      "Ġcaste": 7446,
      "Ġreservation": 7447,
      "ĠCalculator": 7448,
      "ĠDollar": 7449,
      "Meaning": 7450,
      "%\\": 7451,
      "Global": 7452,
      "MI": 7453,
      "Mem": 7454,
      "Schedule": 7455,
      "Uuid": 7456,
      "WCAG": 7457,
      "ba": 7458,
      "bb": 7459,
      "ju": 7460,
      "kish": 7461,
      "sv": 7462,
      "}:\\\\": 7463,
      "ĠÃ": 7464,
      "record": 7465,
      "Ġclu": 7466,
      "amental": 7467,
      "ĠiOS": 7468,
      "ĠSD": 7469,
      "utral": 7470,
      "Ġgl": 7471,
      "Ġmemes": 7472,
      "uman": 7473,
      "ĠBayern": 7474,
      "ado": 7475,
      "Ġviews": 7476,
      "ĠGod": 7477,
      "andy": 7478,
      "hishing": 7479,
      "endDate": 7480,
      "Ġfollowed": 7481,
      "aths": 7482,
      "Ġmanage": 7483,
      "Ġverse": 7484,
      "192": 7485,
      "Ġtrivia": 7486,
      "Week": 7487,
      "pliant": 7488,
      "Design": 7489,
      "mainnet": 7490,
      "Ġconnect": 7491,
      "ĠRecord": 7492,
      "Ġauthors": 7493,
      "ĠBreeds": 7494,
      "rypted": 7495,
      "(\\\"": 7496,
      "76": 7497,
      "Block": 7498,
      "Enter": 7499,
      "Hashtag": 7500,
      "KE": 7501,
      "RP": 7502,
      "cles": 7503,
      "library": 7504,
      "pk": 7505,
      "rated": 7506,
      "twitter": 7507,
      "ĠâĢ": 7508,
      "rodu": 7509,
      "iche": 7510,
      "usdt": 7511,
      "Ġded": 7512,
      "ĠTheir": 7513,
      "dictions": 7514,
      "vidence": 7515,
      "ĠPast": 7516,
      "ĠGit": 7517,
      "ĠJob": 7518,
      "ĠVen": 7519,
      "rigin": 7520,
      "ĠConversion": 7521,
      "shot": 7522,
      "tickers": 7523,
      "ĠQuery": 7524,
      "roll": 7525,
      "\\\"}\\": 7526,
      "abcd": 7527,
      "ifications": 7528,
      "capital": 7529,
      "ĠNYSE": 7530,
      "lorida": 7531,
      "Ġsheet": 7532,
      "Ġquickly": 7533,
      "Ġcommodity": 7534,
      "Ġdescribed": 7535,
      "PdfInStorageTo": 7536,
      "Flip": 7537,
      "ĠTimes": 7538,
      "ĠRoman": 7539,
      "American": 7540,
      "MR": 7541,
      "Source": 7542,
      "custom": 7543,
      "qr": 7544,
      "wits": 7545,
      "stant": 7546,
      "stone": 7547,
      "Ġreel": 7548,
      "Ġlap": 7549,
      "Ġlos": 7550,
      "asting": 7551,
      "sec": 7552,
      "thumbnail": 7553,
      "Ġanswe": 7554,
      "imb": 7555,
      "ourney": 7556,
      "ĠJames": 7557,
      "train": 7558,
      "Ġdiscount": 7559,
      "ashing": 7560,
      "ĠWebsite": 7561,
      "Ġesse": 7562,
      "standard": 7563,
      "Ġregister": 7564,
      "ĠTopics": 7565,
      "ĠKeywords": 7566,
      "Additional": 7567,
      "Ġpayments": 7568,
      "Ġcombination": 7569,
      "Ġframework": 7570,
      "Ġregulatory": 7571,
      "Ġnumeric": 7572,
      "Ġreplacement": 7573,
      "Ġsummarize": 7574,
      "Ġanswered": 7575,
      "!\\": 7576,
      "92": 7577,
      "Available": 7578,
      "Function": 7579,
      "Fields": 7580,
      "RD": 7581,
      "dance": 7582,
      "has": 7583,
      "some": 7584,
      "Ġ78": 7585,
      "ini": 7586,
      "inting": 7587,
      "Ġanc": 7588,
      "Ġpi": 7589,
      "Ġdream": 7590,
      "Ġinverse": 7591,
      "ĠSet": 7592,
      "Ġhold": 7593,
      "seque": 7594,
      "ĠCR": 7595,
      "abox": 7596,
      "Ġshif": 7597,
      "ĠBR": 7598,
      "essions": 7599,
      "ĠMughal": 7600,
      "ĠNetwork": 7601,
      "ĠWhen": 7602,
      "oscope": 7603,
      "Ġfourth": 7604,
      "Ġmanaging": 7605,
      "restaurant": 7606,
      "Ġfeat": 7607,
      "Ġdirector": 7608,
      "876": 7609,
      "movie": 7610,
      "Ġdetected": 7611,
      "pisode": 7612,
      "pected": 7613,
      "Ġwrite": 7614,
      "ributions": 7615,
      "Ġmonitor": 7616,
      "Ġdecision": 7617,
      "Ġconstruction": 7618,
      "Ġearthquake": 7619,
      "Ġdeploy": 7620,
      "sensitive": 7621,
      "Ethics": 7622,
      "olutely": 7623,
      "ertilizer": 7624,
      "Ġsurgical": 7625,
      "Davidson": 7626,
      "Ġpornstars": 7627,
      "ortgage": 7628,
      "rocery": 7629,
      "nAssuming": 7630,
      "sequent": 7631,
      "81": 7632,
      "Dance": 7633,
      "Hello": 7634,
      "Ins": 7635,
      "ctivity": 7636,
      "dates": 7637,
      "{\\": 7638,
      "onom": 7639,
      "Ġremo": 7640,
      "geo": 7641,
      "thm": 7642,
      "look": 7643,
      "ĠMessages": 7644,
      "apes": 7645,
      "Ġjobs": 7646,
      "Ġmatter": 7647,
      "ighb": 7648,
      "Ġnewspaper": 7649,
      "ancing": 7650,
      "ĠComplete": 7651,
      "INDEX": 7652,
      "Conf": 7653,
      "Analyze": 7654,
      "Ġlonger": 7655,
      "Ġgoing": 7656,
      "Form": 7657,
      "Ġforms": 7658,
      "Ġoperating": 7659,
      "ĠRecords": 7660,
      "Ġreduced": 7661,
      "ĠSuper": 7662,
      "Ġdepartment": 7663,
      "Ġcontrast": 7664,
      "Ġurban": 7665,
      "Step": 7666,
      "sych": 7667,
      "Ġconflict": 7668,
      "oronto": 7669,
      "Port": 7670,
      "basketball": 7671,
      "ency": 7672,
      "pages": 7673,
      "tid": 7674,
      "Ġir": 7675,
      "rops": 7676,
      "Ġwarehouse": 7677,
      "ĠUEFA": 7678,
      "ĠDocument": 7679,
      "Ġpremium": 7680,
      "nThey": 7681,
      "ĠViet": 7682,
      "everse": 7683,
      "arily": 7684,
      "icket": 7685,
      "udents": 7686,
      "Ġadminist": 7687,
      "Ġ75": 7688,
      "Ġapplied": 7689,
      "letters": 7690,
      "Art": 7691,
      "Ġdraws": 7692,
      "ĠAfter": 7693,
      "CurrencyUuid": 7694,
      "ĠDogecoin": 7695,
      "Show": 7696,
      "ĠUpcoming": 7697,
      "ynonyms": 7698,
      "Ġphotos": 7699,
      "ilingual": 7700,
      "Ġcorresponds": 7701,
      "Germany": 7702,
      "Ġinterpret": 7703,
      "Ġpolitics": 7704,
      "facturing": 7705,
      "365": 7706,
      "Amazon": 7707,
      "Emp": 7708,
      "IA": 7709,
      "jis": 7710,
      "tv": 7711,
      "vate": 7712,
      "Ġboo": 7713,
      "dest": 7714,
      "Ġlayer": 7715,
      "ayback": 7716,
      "rap": 7717,
      "llust": 7718,
      "orders": 7719,
      "Ġvacc": 7720,
      "ĠRole": 7721,
      "ĠOb": 7722,
      "Ġvalu": 7723,
      "ĠStar": 7724,
      "orship": 7725,
      "Ġclinic": 7726,
      "itial": 7727,
      "Ġcalculating": 7728,
      "ATE": 7729,
      "Ġdivision": 7730,
      "Ġ8601": 7731,
      "Ġzodiac": 7732,
      "Ġbookie": 7733,
      "Secure": 7734,
      "Ġconversational": 7735,
      "xygen": 7736,
      "ĠTranslation": 7737,
      "Ġpersonalized": 7738,
      "Ġdriver": 7739,
      "Ġadvance": 7740,
      "Ġmonitoring": 7741,
      "Airport": 7742,
      "blockchain": 7743,
      "ĠBooks": 7744,
      "Contact": 7745,
      "ourism": 7746,
      "ĠMarkdown": 7747,
      "Ġfascinating": 7748,
      "imilarly": 7749,
      "Greatest": 7750,
      "Op": 7751,
      "Paris": 7752,
      "district": 7753,
      "mote": 7754,
      "public": 7755,
      "sed": 7756,
      "wide": 7757,
      "}]},": 7758,
      "ľħ": 7759,
      "Ġsatis": 7760,
      "Ġcut": 7761,
      "Ġfall": 7762,
      "Ġmoderate": 7763,
      "ireless": 7764,
      "semb": 7765,
      "program": 7766,
      "abet": 7767,
      "ĠManchester": 7768,
      "Ġconcept": 7769,
      "ĠEN": 7770,
      "ĠEV": 7771,
      "ĠEmo": 7772,
      "ocode": 7773,
      "Ġ33": 7774,
      "ental": 7775,
      "Ġrelax": 7776,
      "2027": 7777,
      "conds": 7778,
      "ggs": 7779,
      "nAh": 7780,
      "prise": 7781,
      "Ġvery": 7782,
      "Ġsubsequent": 7783,
      "Ġvehicles": 7784,
      "Ġlinked": 7785,
      "ĠShows": 7786,
      "Ġreported": 7787,
      "Ġassumed": 7788,
      "Ġpaths": 7789,
      "Ġloss": 7790,
      "Ġlosses": 7791,
      "auty": 7792,
      "Ġeverything": 7793,
      "ĠPerfect": 7794,
      "Height": 7795,
      "Ġcapitalization": 7796,
      "Ġincorrectly": 7797,
      "amera": 7798,
      "Speed": 7799,
      "Ġscraping": 7800,
      "Ġcycle": 7801,
      "Ġsquare": 7802,
      "Ġopinions": 7803,
      "gainers": 7804,
      "LS": 7805,
      "May": 7806,
      "RO": 7807,
      "TX": 7808,
      "hus": 7809,
      "Ġol": 7810,
      "Ġside": 7811,
      "student": 7812,
      "article": 7813,
      "eter": 7814,
      "ette": 7815,
      "Ġascending": 7816,
      "delete": 7817,
      "Ġmechan": 7818,
      "nSimilarly": 7819,
      "nection": 7820,
      "Ġmakeup": 7821,
      "Ġembed": 7822,
      "Stats": 7823,
      "ĠIPs": 7824,
      "Ġconfirming": 7825,
      "Ġmainnet": 7826,
      "Period": 7827,
      "Ġrunning": 7828,
      "ĠEarthqu": 7829,
      "Ġprogramming": 7830,
      "success": 7831,
      "Events": 7832,
      "ĠauthToken": 7833,
      "Ġeffectively": 7834,
      "Ġreliability": 7835,
      "Ġkilometers": 7836,
      "Ġrequesting": 7837,
      "utrition": 7838,
      "AD": 7839,
      "Drive": 7840,
      "PF": 7841,
      "document": 7842,
      "ior": 7843,
      "ival": 7844,
      "published": 7845,
      "xx": 7846,
      "Ġlines": 7847,
      "ĠSlo": 7848,
      "Ġstage": 7849,
      "Ġstudents": 7850,
      "Ġyyy": 7851,
      "Ġshown": 7852,
      "Ġchapters": 7853,
      "asters": 7854,
      "ĠOly": 7855,
      "osting": 7856,
      "Ġinteractions": 7857,
      "Ġprobability": 7858,
      "ĠAlways": 7859,
      "Contract": 7860,
      "Ġworkout": 7861,
      "ĠTrading": 7862,
      "ĠPhil": 7863,
      "ĠAccra": 7864,
      "YouTube": 7865,
      "demic": 7866,
      "ĠPerformance": 7867,
      "Ġrepresents": 7868,
      "Ġaligns": 7869,
      "Ġbeginning": 7870,
      "ossil": 7871,
      "Ġyyyy": 7872,
      "69": 7873,
      ";\\": 7874,
      "Cent": 7875,
      "Folder": 7876,
      "KR": 7877,
      "cal": 7878,
      "ux": 7879,
      "ule": 7880,
      "udio": 7881,
      "xide": 7882,
      "review": 7883,
      "road": 7884,
      "Ġmanga": 7885,
      "conf": 7886,
      "ĠMachine": 7887,
      "ĠRocket": 7888,
      "Ġliving": 7889,
      "Ġplate": 7890,
      "Ġgeocoding": 7891,
      "Ġaddressed": 7892,
      "nswer": 7893,
      "ishing": 7894,
      "ĠCanadian": 7895,
      "ĠCommon": 7896,
      "Ġapproximate": 7897,
      "ummy": 7898,
      "Ġdiet": 7899,
      "Ġtemporary": 7900,
      "Ġformal": 7901,
      "Ġfactor": 7902,
      "Ġrepresentation": 7903,
      "Ġattribute": 7904,
      "ĠDecoder": 7905,
      "Ġunclear": 7906,
      "Ġgenetic": 7907,
      "Ġbroadcast": 7908,
      "âĤĤ": 7909,
      "Energy": 7910,
      "Graph": 7911,
      "NE": 7912,
      "PDF": 7913,
      "draw": 7914,
      "languages": 7915,
      "nam": 7916,
      "Ġtack": 7917,
      "reed": 7918,
      "inem": 7919,
      "Ġsle": 7920,
      "Ġwar": 7921,
      "quarterly": 7922,
      "Ġforce": 7923,
      "ĠuserId": 7924,
      "ĠSK": 7925,
      "Ġthri": 7926,
      "Ġstability": 7927,
      "Ġhotels": 7928,
      "ĠAustin": 7929,
      "Ġgall": 7930,
      "celon": 7931,
      "Ġseen": 7932,
      "ĠClose": 7933,
      "ĠTarget": 7934,
      "ĠMad": 7935,
      "Ġexcept": 7936,
      "Ġdeca": 7937,
      "ĠRem": 7938,
      "Ġincident": 7939,
      "ĠWat": 7940,
      "aticon": 7941,
      "Ġimplied": 7942,
      "Ġcoffee": 7943,
      "Property": 7944,
      "ING": 7945,
      "Ġrot": 7946,
      "ĠAnn": 7947,
      "Ġminute": 7948,
      "Ġconsumption": 7949,
      "created": 7950,
      "struction": 7951,
      "ĠAsian": 7952,
      "Keyword": 7953,
      "ĠCurrencies": 7954,
      "Ġcampaigns": 7955,
      "Ġcombined": 7956,
      "FFFF": 7957,
      "Ġemotional": 7958,
      "ĠSpeed": 7959,
      "Ġrequiring": 7960,
      "ĠRankings": 7961,
      "Ġconfiguration": 7962,
      "Ġbehind": 7963,
      "Fact": 7964,
      "Job": 7965,
      "Tower": 7966,
      "aj": 7967,
      "cams": 7968,
      "eng": 7969,
      "hi": 7970,
      "note": 7971,
      "inate": 7972,
      "Ġwall": 7973,
      "Ġborder": 7974,
      "Ġreverse": 7975,
      "any": 7976,
      "ĠScience": 7977,
      "chapter": 7978,
      "Ġment": 7979,
      "Ġanonym": 7980,
      "ĠTask": 7981,
      "ĠFed": 7982,
      "ĠGrand": 7983,
      "andem": 7984,
      "Ġending": 7985,
      "ĠProxies": 7986,
      "Request": 7987,
      "ĠIndones": 7988,
      "094": 7989,
      "\\\"].": 7990,
      "Ġrecommendation": 7991,
      "Ġensures": 7992,
      "Whois": 7993,
      "ĠWebtoon": 7994,
      "Ġpacks": 7995,
      "Ġbuying": 7996,
      "control": 7997,
      "Ġrelationship": 7998,
      "Ġbalances": 7999,
      "olitical": 8000,
      "Ġrenewable": 8001,
      "severance": 8002,
      "Ġacknowledge": 8003,
      ")\\\",": 8004,
      "Head": 8005,
      "LO": 8006,
      "Matches": 8007,
      "Vir": 8008,
      "VDA": 8009,
      "}}": 8010,
      "Ġ:": 8011,
      "Ġchemical": 8012,
      "roati": 8013,
      "quare": 8014,
      "Ġforg": 8015,
      "percentage": 8016,
      "Ġgraph": 8017,
      "rastructure": 8018,
      "ĠMal": 8019,
      "ĠNear": 8020,
      "Ġchance": 8021,
      "Ġ{}}},": 8022,
      "ĠgetC": 8023,
      "ranean": 8024,
      "Ġtraders": 8025,
      "Ġsafest": 8026,
      "Ġalgorithms": 8027,
      "Ġrain": 8028,
      "ĠQuality": 8029,
      "USA": 8030,
      "ĠResearch": 8031,
      "Ġstatuses": 8032,
      "Ġnamespace": 8033,
      "Ġparty": 8034,
      "Ġparse": 8035,
      "Unit": 8036,
      "Ġplans": 8037,
      "ĠperformanceId": 8038,
      "dividend": 8039,
      "Ġfocusing": 8040,
      "ivil": 8041,
      "iterranean": 8042,
      "4947": 8043,
      "Capital": 8044,
      "Ġreflects": 8045,
      "departure": 8046,
      "gentina": 8047,
      "celona": 8048,
      "0944947": 8049,
      "GH": 8050,
      "SG": 8051,
      "hl": 8052,
      "summary": 8053,
      "Ġicons": 8054,
      "\\\"*": 8055,
      "Ġdamage": 8056,
      "Ġbio": 8057,
      "Ġinformed": 8058,
      "Ġmock": 8059,
      "Ġmill": 8060,
      "vention": 8061,
      "sequence": 8062,
      "ceive": 8063,
      "rati": 8064,
      "kelet": 8065,
      "Ġsegment": 8066,
      "ĠDen": 8067,
      "Ġabs": 8068,
      "una": 8069,
      "Ġformatting": 8070,
      "phr": 8071,
      "unday": 8072,
      "Ġseparately": 8073,
      "Ġtransfers": 8074,
      "tines": 8075,
      "Ġzh": 8076,
      "lectric": 8077,
      "ĠArk": 8078,
      "Ġ150": 8079,
      "00000000": 8080,
      "Ġpeak": 8081,
      "Performance": 8082,
      "links": 8083,
      "Premier": 8084,
      "ĠContact": 8085,
      "door": 8086,
      "Ġbeginner": 8087,
      "Ġparticipants": 8088,
      "ĠRoad": 8089,
      "cryptocurrency": 8090,
      "ijing": 8091,
      "Ġemployees": 8092,
      "sembly": 8093,
      "256": 8094,
      "AG": 8095,
      "IATA": 8096,
      "TD": 8097,
      "],": 8098,
      "bally": 8099,
      "marks": 8100,
      "rates": 8101,
      "script": 8102,
      "reference": 8103,
      "Ġfoot": 8104,
      "Ġrely": 8105,
      "Ġeas": 8106,
      "ĠScheme": 8107,
      "omes": 8108,
      "context": 8109,
      "Ġselected": 8110,
      "Ġshopping": 8111,
      "ford": 8112,
      "ĠUnder": 8113,
      "ĠHospital": 8114,
      "003": 8115,
      "ĠEqu": 8116,
      "Ġheat": 8117,
      "achments": 8118,
      "ĠgetA": 8119,
      "dian": 8120,
      "Ġclarity": 8121,
      "ĠDevelo": 8122,
      "ferred": 8123,
      "122": 8124,
      "Ġcalculations": 8125,
      "Ġconfirmation": 8126,
      "ĠUnicode": 8127,
      "Technology": 8128,
      "Ġlogo": 8129,
      "Ġdownloading": 8130,
      "Ġstrain": 8131,
      "Ġorganizations": 8132,
      "UserByName": 8133,
      "population": 8134,
      "Ġdelta": 8135,
      "Ġforecasts": 8136,
      "Ġideal": 8137,
      "ĠModels": 8138,
      "Ġexecution": 8139,
      "![": 8140,
      "Doe": 8141,
      "][": 8142,
      "da": 8143,
      "fg": 8144,
      "km": 8145,
      "pth": 8146,
      "rations": 8147,
      "zes": 8148,
      "Ġ01": 8149,
      "ĠâĢĶ": 8150,
      "Ġuuid": 8151,
      "esis": 8152,
      "esse": 8153,
      "Ġcore": 8154,
      "Ġdess": 8155,
      "Ġefficient": 8156,
      "products": 8157,
      "mentary": 8158,
      "ĠClub": 8159,
      "irl": 8160,
      "ĠLight": 8161,
      "Ġ**[": 8162,
      "ĠMLE": 8163,
      "upcoming": 8164,
      "ĠEle": 8165,
      "unis": 8166,
      "ĠWar": 8167,
      "feed": 8168,
      "ĠOcean": 8169,
      "ĠGetting": 8170,
      "ĠView": 8171,
      "Ġappreci": 8172,
      "Ġtypos": 8173,
      "exist": 8174,
      "mak": 8175,
      "nNeed": 8176,
      "epis": 8177,
      "Ġzones": 8178,
      "Ġspelling": 8179,
      "Ġvariations": 8180,
      "Ġweren": 8181,
      "fficial": 8182,
      "MSFT": 8183,
      "ĠFinder": 8184,
      "Ġpersonality": 8185,
      "Ġstrains": 8186,
      "ĠAspose": 8187,
      "uris": 8188,
      "ĠTransaction": 8189,
      "Ġstrictly": 8190,
      "Ġsearched": 8191
    },
    "merges": [
      [
        "Ġ",
        "\""
      ],
      [
        "Ġ",
        "t"
      ],
      [
        "\"",
        ":"
      ],
      [
        "h",
        "e"
      ],
      [
        "o",
        "n"
      ],
      [
        "r",
        "e"
      ],
      [
        "t",
        "i"
      ],
      [
        "i",
        "n"
      ],
      [
        "Ġ",
        "a"
      ],
      [
        "e",
        "r"
      ],
      [
        "Ġt",
        "he"
      ],
      [
        "ti",
        "on"
      ],
      [
        "e",
        "s"
      ],
      [
        "\"",
        ","
      ],
      [
        "Ġ",
        "s"
      ],
      [
        "o",
        "r"
      ],
      [
        "m",
        "e"
      ],
      [
        "{",
        "\""
      ],
      [
        "Ġ",
        "{\""
      ],
      [
        "Ġ",
        "c"
      ],
      [
        "s",
        "t"
      ],
      [
        "a",
        "t"
      ],
      [
        "Ġt",
        "o"
      ],
      [
        "Ġ",
        "f"
      ],
      [
        "p",
        "e"
      ],
      [
        "r",
        "i"
      ],
      [
        "n",
        "t"
      ],
      [
        "Ġ",
        "p"
      ],
      [
        "a",
        "l"
      ],
      [
        "o",
        "l"
      ],
      [
        "in",
        "g"
      ],
      [
        "a",
        "r"
      ],
      [
        "t",
        "y"
      ],
      [
        "e",
        "t"
      ],
      [
        "e",
        "d"
      ],
      [
        "a",
        "me"
      ],
      [
        "o",
        "u"
      ],
      [
        "}",
        ","
      ],
      [
        "Ġ",
        "i"
      ],
      [
        "\\",
        "\""
      ],
      [
        "ty",
        "pe"
      ],
      [
        "r",
        "o"
      ],
      [
        "n",
        "c"
      ],
      [
        "Ġ",
        "n"
      ],
      [
        "Ġ",
        "w"
      ],
      [
        "i",
        "c"
      ],
      [
        "q",
        "u"
      ],
      [
        "u",
        "s"
      ],
      [
        "n",
        "d"
      ],
      [
        "Ġ",
        "d"
      ],
      [
        "p",
        "tion"
      ],
      [
        "Ġ",
        "b"
      ],
      [
        "Ġ",
        "re"
      ],
      [
        "d",
        "es"
      ],
      [
        "c",
        "ri"
      ],
      [
        "cri",
        "ption"
      ],
      [
        "i",
        "t"
      ],
      [
        "Ġ",
        "in"
      ],
      [
        "T",
        "he"
      ],
      [
        "Ġ",
        "o"
      ],
      [
        "Ġ",
        "m"
      ],
      [
        "des",
        "cription"
      ],
      [
        "a",
        "n"
      ],
      [
        "u",
        "nc"
      ],
      [
        "i",
        "re"
      ],
      [
        "Ġf",
        "or"
      ],
      [
        "unc",
        "tion"
      ],
      [
        "v",
        "e"
      ],
      [
        "t",
        "er"
      ],
      [
        "qu",
        "ire"
      ],
      [
        "l",
        "e"
      ],
      [
        "Ġ",
        "us"
      ],
      [
        "u",
        "l"
      ],
      [
        "Ġ",
        "\\\""
      ],
      [
        "Ġi",
        "s"
      ],
      [
        "Ġ",
        "I"
      ],
      [
        "Ġto",
        "ol"
      ],
      [
        "Ġ",
        "l"
      ],
      [
        "i",
        "d"
      ],
      [
        "r",
        "ing"
      ],
      [
        "quire",
        "d"
      ],
      [
        "Ġo",
        "f"
      ],
      [
        "f",
        "unction"
      ],
      [
        "a",
        "s"
      ],
      [
        "Ġa",
        "nd"
      ],
      [
        "i",
        "st"
      ],
      [
        ".",
        "\\"
      ],
      [
        "i",
        "l"
      ],
      [
        "Ġ",
        "e"
      ],
      [
        "a",
        "y"
      ],
      [
        "g",
        "e"
      ],
      [
        "a",
        "tion"
      ],
      [
        "Ġus",
        "er"
      ],
      [
        "n",
        "ame"
      ],
      [
        "re",
        "quired"
      ],
      [
        "Ġ",
        "["
      ],
      [
        "al",
        "l"
      ],
      [
        "ame",
        "ter"
      ],
      [
        "ar",
        "ameter"
      ],
      [
        "st",
        "ring"
      ],
      [
        "Ġ",
        "S"
      ],
      [
        "Ġa",
        "s"
      ],
      [
        "u",
        "t"
      ],
      [
        "*",
        "*"
      ],
      [
        "t",
        "e"
      ],
      [
        "}",
        "},"
      ],
      [
        "d",
        "e"
      ],
      [
        "Ġp",
        "ro"
      ],
      [
        "Ġt",
        "h"
      ],
      [
        "c",
        "h"
      ],
      [
        "a",
        "nt"
      ],
      [
        "arameter",
        "s"
      ],
      [
        "c",
        "t"
      ],
      [
        "'",
        "s"
      ],
      [
        "\"",
        "},"
      ],
      [
        "at",
        "e"
      ],
      [
        "Ġ",
        "The"
      ],
      [
        "u",
        "r"
      ],
      [
        "Ġs",
        "t"
      ],
      [
        "i",
        "s"
      ],
      [
        "Ġ",
        "h"
      ],
      [
        "Ġ",
        "A"
      ],
      [
        "o",
        "w"
      ],
      [
        "o",
        "m"
      ],
      [
        ".",
        "\","
      ],
      [
        "c",
        "k"
      ],
      [
        "Ġ",
        "("
      ],
      [
        "it",
        "h"
      ],
      [
        "s",
        "e"
      ],
      [
        "p",
        "er"
      ],
      [
        "c",
        "on"
      ],
      [
        "Ġw",
        "ith"
      ],
      [
        "l",
        "d"
      ],
      [
        "Ġn",
        "e"
      ],
      [
        "Ġ",
        "g"
      ],
      [
        "c",
        "i"
      ],
      [
        "t",
        "h"
      ],
      [
        "c",
        "e"
      ],
      [
        "Ġ",
        "me"
      ],
      [
        "a",
        "ge"
      ],
      [
        "p",
        "ro"
      ],
      [
        "ti",
        "es"
      ],
      [
        "r",
        "a"
      ],
      [
        "v",
        "er"
      ],
      [
        "ri",
        "e"
      ],
      [
        "me",
        "nt"
      ],
      [
        "k",
        "e"
      ],
      [
        "a",
        "il"
      ],
      [
        "d",
        "ic"
      ],
      [
        "i",
        "g"
      ],
      [
        "Ġs",
        "e"
      ],
      [
        "Ġ",
        "y"
      ],
      [
        "Ġ",
        "C"
      ],
      [
        "ou",
        "ld"
      ],
      [
        "v",
        "id"
      ],
      [
        "Ġc",
        "all"
      ],
      [
        "ul",
        "l"
      ],
      [
        "s",
        "ist"
      ],
      [
        "per",
        "ties"
      ],
      [
        "t",
        "o"
      ],
      [
        "]",
        "},"
      ],
      [
        "i",
        "r"
      ],
      [
        "Ġs",
        "o"
      ],
      [
        "dic",
        "t"
      ],
      [
        "Ġ",
        "on"
      ],
      [
        "ul",
        "t"
      ],
      [
        "u",
        "m"
      ],
      [
        "pro",
        "perties"
      ],
      [
        "p",
        "arameters"
      ],
      [
        "ol",
        "e"
      ],
      [
        "Ġn",
        "ull"
      ],
      [
        "a",
        "b"
      ],
      [
        "sist",
        "ant"
      ],
      [
        "Ġ",
        "or"
      ],
      [
        "Ġb",
        "e"
      ],
      [
        "a",
        "m"
      ],
      [
        "G",
        "et"
      ],
      [
        "pe",
        "ci"
      ],
      [
        "l",
        "y"
      ],
      [
        "te",
        "nt"
      ],
      [
        "Ġth",
        "at"
      ],
      [
        "Ġa",
        "re"
      ],
      [
        "Ġy",
        "ou"
      ],
      [
        "Ġw",
        "h"
      ],
      [
        "\\",
        "\":"
      ],
      [
        "Ġ[",
        "\""
      ],
      [
        "g",
        "u"
      ],
      [
        "Ġtool",
        "s"
      ],
      [
        "Ġa",
        "n"
      ],
      [
        "r",
        "ole"
      ],
      [
        "}",
        "]"
      ],
      [
        "peci",
        "f"
      ],
      [
        "Ġi",
        "t"
      ],
      [
        "Ġs",
        "h"
      ],
      [
        "\"",
        "]},"
      ],
      [
        "o",
        "t"
      ],
      [
        "Ġpro",
        "vid"
      ],
      [
        "Ġ",
        "L"
      ],
      [
        "con",
        "tent"
      ],
      [
        "Ġne",
        "ed"
      ],
      [
        "ou",
        "t"
      ],
      [
        "rie",
        "ve"
      ],
      [
        "Ġ",
        "**"
      ],
      [
        "Ġ",
        "B"
      ],
      [
        "n",
        "g"
      ],
      [
        "\"",
        "}},"
      ],
      [
        "h",
        "t"
      ],
      [
        "Ġre",
        "t"
      ],
      [
        "Ġ",
        "Ġ"
      ],
      [
        "Ġs",
        "pecif"
      ],
      [
        "Ġb",
        "ut"
      ],
      [
        "f",
        "or"
      ],
      [
        "l",
        "o"
      ],
      [
        "Ġ[",
        "{\""
      ],
      [
        "Ġ",
        "T"
      ],
      [
        "'",
        "t"
      ],
      [
        "ic",
        "h"
      ],
      [
        "o",
        "o"
      ],
      [
        "f",
        "a"
      ],
      [
        "es",
        "s"
      ],
      [
        "Ġ",
        "M"
      ],
      [
        "Ġe",
        "x"
      ],
      [
        "Ġwh",
        "ich"
      ],
      [
        "u",
        "p"
      ],
      [
        "at",
        "a"
      ],
      [
        "es",
        "t"
      ],
      [
        "2",
        "0"
      ],
      [
        "\\",
        "\","
      ],
      [
        "Ġc",
        "an"
      ],
      [
        "for",
        "m"
      ],
      [
        "Ġ",
        "\\"
      ],
      [
        "o",
        "re"
      ],
      [
        "Ġ",
        "P"
      ],
      [
        "Ġc",
        "on"
      ],
      [
        "b",
        "e"
      ],
      [
        "in",
        "k"
      ],
      [
        "l",
        "l"
      ],
      [
        "ro",
        "m"
      ],
      [
        "fa",
        "ult"
      ],
      [
        "Ġsh",
        "ould"
      ],
      [
        "he",
        "ck"
      ],
      [
        "Ġ",
        "1"
      ],
      [
        "or",
        "t"
      ],
      [
        "R",
        "et"
      ],
      [
        "a",
        "g"
      ],
      [
        "ĠS",
        "o"
      ],
      [
        "a",
        "it"
      ],
      [
        "k",
        "ing"
      ],
      [
        "Ġp",
        "arameters"
      ],
      [
        "a",
        "in"
      ],
      [
        "ĠI",
        "D"
      ],
      [
        "Ġb",
        "y"
      ],
      [
        "ment",
        "s"
      ],
      [
        "W",
        "ait"
      ],
      [
        "ti",
        "ng"
      ],
      [
        "Ġf",
        "unction"
      ],
      [
        "u",
        "re"
      ],
      [
        "Ġ",
        "U"
      ],
      [
        "Ġprovid",
        "ed"
      ],
      [
        "ou",
        "nt"
      ],
      [
        "Ġf",
        "rom"
      ],
      [
        "ay",
        "be"
      ],
      [
        "to",
        "ol"
      ],
      [
        "Ġre",
        "s"
      ],
      [
        "Ġ",
        "'"
      ],
      [
        "Ġh",
        "a"
      ],
      [
        "}",
        "}]"
      ],
      [
        "Ġ",
        "D"
      ],
      [
        "b",
        "er"
      ],
      [
        "Ġ",
        "H"
      ],
      [
        "Ġd",
        "e"
      ],
      [
        "o",
        "de"
      ],
      [
        "0",
        "0"
      ],
      [
        "i",
        "m"
      ],
      [
        "Ġl",
        "ist"
      ],
      [
        "Ġ",
        "E"
      ],
      [
        "Ġas",
        "sistant"
      ],
      [
        "Ġ",
        "he"
      ],
      [
        "nc",
        "e"
      ],
      [
        "ab",
        "le"
      ],
      [
        "Ġ",
        "F"
      ],
      [
        "Ġ",
        "N"
      ],
      [
        "o",
        "c"
      ],
      [
        "l",
        "u"
      ],
      [
        "r",
        "y"
      ],
      [
        "at",
        "ed"
      ],
      [
        "a",
        "d"
      ],
      [
        "ur",
        "re"
      ],
      [
        "th",
        "ink"
      ],
      [
        "i",
        "e"
      ],
      [
        "ig",
        "ht"
      ],
      [
        "Ġd",
        "ata"
      ],
      [
        "he",
        "r"
      ],
      [
        "Ġc",
        "heck"
      ],
      [
        "i",
        "ty"
      ],
      [
        "Ġa",
        "b"
      ],
      [
        "i",
        "on"
      ],
      [
        "a",
        "p"
      ],
      [
        "or",
        "d"
      ],
      [
        "Ġthe",
        "y"
      ],
      [
        "i",
        "ve"
      ],
      [
        "e",
        "n"
      ],
      [
        "um",
        "ber"
      ],
      [
        "p",
        "ort"
      ],
      [
        "Ġp",
        "er"
      ],
      [
        "Ġ",
        "v"
      ],
      [
        "gu",
        "ments"
      ],
      [
        "us",
        "er"
      ],
      [
        "re",
        "s"
      ],
      [
        "Ġab",
        "out"
      ],
      [
        "Ġ",
        "R"
      ],
      [
        "ation",
        "s"
      ],
      [
        "ar",
        "ch"
      ],
      [
        "P",
        "I"
      ],
      [
        "x",
        "t"
      ],
      [
        "Ġm",
        "aybe"
      ],
      [
        "p",
        "on"
      ],
      [
        "Ġha",
        "ve"
      ],
      [
        "p",
        "l"
      ],
      [
        "2",
        "3"
      ],
      [
        "Ġc",
        "h"
      ],
      [
        "Ġi",
        "f"
      ],
      [
        "ou",
        "r"
      ],
      [
        "Ġa",
        "c"
      ],
      [
        "ĠA",
        "PI"
      ],
      [
        "Ġin",
        "c"
      ],
      [
        "v",
        "ail"
      ],
      [
        "form",
        "ation"
      ],
      [
        "Ġspecif",
        "ic"
      ],
      [
        "Ġw",
        "e"
      ],
      [
        "ar",
        "t"
      ],
      [
        "ver",
        "s"
      ],
      [
        "Ġ",
        "qu"
      ],
      [
        "a",
        "ch"
      ],
      [
        "as",
        "sistant"
      ],
      [
        "Ġc",
        "om"
      ],
      [
        "Ret",
        "rieve"
      ],
      [
        "Ġst",
        "ring"
      ],
      [
        "Ġn",
        "ame"
      ],
      [
        "Ġret",
        "rieve"
      ],
      [
        "Ġa",
        "vail"
      ],
      [
        ".",
        ","
      ],
      [
        "u",
        "st"
      ],
      [
        "de",
        "fault"
      ],
      [
        "Ġ",
        "up"
      ],
      [
        "in",
        "ce"
      ],
      [
        "et",
        "ail"
      ],
      [
        "ur",
        "n"
      ],
      [
        "in",
        "t"
      ],
      [
        "u",
        "n"
      ],
      [
        "Ġ",
        "{"
      ],
      [
        "er",
        "s"
      ],
      [
        "ar",
        "guments"
      ],
      [
        "Ġp",
        "o"
      ],
      [
        "Ġm",
        "a"
      ],
      [
        "Ġg",
        "et"
      ],
      [
        "Ġl",
        "i"
      ],
      [
        "as",
        "e"
      ],
      [
        "Ġre",
        "quired"
      ],
      [
        "Ġavail",
        "able"
      ],
      [
        "Ġ",
        "-"
      ],
      [
        "d",
        "d"
      ],
      [
        "Ġus",
        "e"
      ],
      [
        "c",
        "tion"
      ],
      [
        "Ġt",
        "e"
      ],
      [
        "p",
        "le"
      ],
      [
        "ĠB",
        "ut"
      ],
      [
        "ir",
        "st"
      ],
      [
        "Ġinc",
        "lu"
      ],
      [
        "-",
        "-"
      ],
      [
        "Ġin",
        "formation"
      ],
      [
        "ti",
        "c"
      ],
      [
        "c",
        "om"
      ],
      [
        "Ġs",
        "ay"
      ],
      [
        "Ġw",
        "ant"
      ],
      [
        "Ġ",
        "20"
      ],
      [
        "i",
        "me"
      ],
      [
        "i",
        "es"
      ],
      [
        "Ġc",
        "urre"
      ],
      [
        "Ġn",
        "umber"
      ],
      [
        "y",
        "m"
      ],
      [
        "n",
        "Wait"
      ],
      [
        "r",
        "an"
      ],
      [
        "Ġ",
        "W"
      ],
      [
        "Ġa",
        "t"
      ],
      [
        "Ġ",
        "G"
      ],
      [
        "a",
        "nce"
      ],
      [
        "a",
        "ti"
      ],
      [
        "or",
        "re"
      ],
      [
        "or",
        "y"
      ],
      [
        "Ġp",
        "l"
      ],
      [
        "pon",
        "se"
      ],
      [
        "c",
        "all"
      ],
      [
        "ĠL",
        "et"
      ],
      [
        "\"",
        "}"
      ],
      [
        "Ġli",
        "ke"
      ],
      [
        "Ġthe",
        "re"
      ],
      [
        "e",
        "m"
      ],
      [
        ">",
        "\\"
      ],
      [
        "at",
        "es"
      ],
      [
        "Ġn",
        "ot"
      ],
      [
        "orre",
        "ct"
      ],
      [
        "Ġth",
        "is"
      ],
      [
        "Ġg",
        "ive"
      ],
      [
        "ate",
        "g"
      ],
      [
        "b",
        "ol"
      ],
      [
        "ym",
        "bol"
      ],
      [
        "Ġre",
        "quire"
      ],
      [
        "ount",
        "ry"
      ],
      [
        "t",
        "her"
      ],
      [
        "Ġfunction",
        "s"
      ],
      [
        "r",
        "u"
      ],
      [
        ")",
        "\","
      ],
      [
        "p",
        "o"
      ],
      [
        "Ġm",
        "ore"
      ],
      [
        "Ġ",
        "ge"
      ],
      [
        "o",
        "d"
      ],
      [
        "etail",
        "s"
      ],
      [
        "c",
        "he"
      ],
      [
        "**",
        ":"
      ],
      [
        "i",
        "f"
      ],
      [
        "Ġc",
        "orrect"
      ],
      [
        "res",
        "s"
      ],
      [
        "g",
        "et"
      ],
      [
        "o",
        "g"
      ],
      [
        "Ġgive",
        "n"
      ],
      [
        "Ġp",
        "arameter"
      ],
      [
        "Ġm",
        "ight"
      ],
      [
        "a",
        "st"
      ],
      [
        "k",
        "ay"
      ],
      [
        "i",
        "z"
      ],
      [
        "b",
        "le"
      ],
      [
        "Ġd",
        "es"
      ],
      [
        "Ġa",
        "ll"
      ],
      [
        "Ġa",
        "r"
      ],
      [
        "er",
        "y"
      ],
      [
        "n",
        "er"
      ],
      [
        "Y",
        "Y"
      ],
      [
        "tool",
        "s"
      ],
      [
        "m",
        "at"
      ],
      [
        "n",
        "O"
      ],
      [
        "Ġsay",
        "s"
      ],
      [
        "Ġl",
        "oc"
      ],
      [
        "Ġret",
        "urn"
      ],
      [
        "Ġp",
        "re"
      ],
      [
        "Ġ",
        "j"
      ],
      [
        "Ġne",
        "w"
      ],
      [
        "Ġas",
        "king"
      ],
      [
        "Ġa",
        "dd"
      ],
      [
        "Ġcurre",
        "nt"
      ],
      [
        "a",
        "nd"
      ],
      [
        "Ġh",
        "as"
      ],
      [
        "Ġac",
        "c"
      ],
      [
        "<",
        "/"
      ],
      [
        "lo",
        "at"
      ],
      [
        "d",
        "u"
      ],
      [
        "}]",
        ","
      ],
      [
        "Ġe",
        "ach"
      ],
      [
        "Ġso",
        "me"
      ],
      [
        "Ġ",
        "J"
      ],
      [
        "v",
        "es"
      ],
      [
        "con",
        "vers"
      ],
      [
        "all",
        "y"
      ],
      [
        "nO",
        "kay"
      ],
      [
        "d",
        "i"
      ],
      [
        "n",
        "tion"
      ],
      [
        "Ġ\"",
        "<"
      ],
      [
        "\"",
        "}],"
      ],
      [
        "}}]",
        "}"
      ],
      [
        "convers",
        "ations"
      ],
      [
        "i",
        "ed"
      ],
      [
        "n",
        "S"
      ],
      [
        "Ġi",
        "m"
      ],
      [
        "Ġ",
        "Wait"
      ],
      [
        "n",
        "e"
      ],
      [
        "}}]",
        ","
      ],
      [
        "call",
        "s"
      ],
      [
        "ĠI",
        "n"
      ],
      [
        "f",
        "e"
      ],
      [
        "on",
        "e"
      ],
      [
        "?",
        "\"},"
      ],
      [
        "l",
        "s"
      ],
      [
        "Ġn",
        "o"
      ],
      [
        "Ġon",
        "e"
      ],
      [
        "Ġup",
        "d"
      ],
      [
        "Ġ",
        "O"
      ],
      [
        "Ġme",
        "ntion"
      ],
      [
        "Ġt",
        "ime"
      ],
      [
        "il",
        "ter"
      ],
      [
        "#",
        "#"
      ],
      [
        "v",
        "i"
      ],
      [
        ":",
        "\\"
      ],
      [
        "n",
        "The"
      ],
      [
        "p",
        "s"
      ],
      [
        "u",
        "e"
      ],
      [
        "Ġ",
        "k"
      ],
      [
        "an",
        "gu"
      ],
      [
        "on",
        "g"
      ],
      [
        "Ġres",
        "ponse"
      ],
      [
        "ic",
        "al"
      ],
      [
        "f",
        "loat"
      ],
      [
        "ar",
        "d"
      ],
      [
        "â",
        "Ģ"
      ],
      [
        "Ġ{",
        "\\\""
      ],
      [
        "Ġhe",
        "re"
      ],
      [
        "Ġthe",
        "ir"
      ],
      [
        "n",
        "ti"
      ],
      [
        "nc",
        "y"
      ],
      [
        "Ġv",
        "al"
      ],
      [
        "am",
        "ple"
      ],
      [
        "Ġ",
        "le"
      ],
      [
        "oo",
        "king"
      ],
      [
        "Ġt",
        "w"
      ],
      [
        "ar",
        "k"
      ],
      [
        "Ġrequire",
        "s"
      ],
      [
        "ption",
        "al"
      ],
      [
        "ke",
        "y"
      ],
      [
        "Ġ",
        "Get"
      ],
      [
        "ult",
        "s"
      ],
      [
        "4",
        "5"
      ],
      [
        "Ġcall",
        "s"
      ],
      [
        "a",
        "c"
      ],
      [
        "o",
        "ck"
      ],
      [
        "Ġo",
        "ther"
      ],
      [
        "I",
        "d"
      ],
      [
        "re",
        "e"
      ],
      [
        "Ġfor",
        "mat"
      ],
      [
        "n",
        "I"
      ],
      [
        "Ġde",
        "fault"
      ],
      [
        "Ġc",
        "ode"
      ],
      [
        "Ġn",
        "ow"
      ],
      [
        "Ġs",
        "u"
      ],
      [
        "n",
        "ow"
      ],
      [
        "Ġspecif",
        "ied"
      ],
      [
        "ve",
        "nt"
      ],
      [
        "in",
        "e"
      ],
      [
        "Ġse",
        "arch"
      ],
      [
        "Ġma",
        "ke"
      ],
      [
        "Ġ",
        "V"
      ],
      [
        "l",
        "p"
      ],
      [
        "Ġc",
        "o"
      ],
      [
        "Ġf",
        "irst"
      ],
      [
        "e",
        "ver"
      ],
      [
        "oo",
        "k"
      ],
      [
        "\"}",
        "}}],"
      ],
      [
        "Ġd",
        "etails"
      ],
      [
        "ateg",
        "ory"
      ],
      [
        "1",
        "23"
      ],
      [
        "Ġs",
        "ince"
      ],
      [
        "ou",
        "s"
      ],
      [
        "a",
        "ri"
      ],
      [
        "d",
        "er"
      ],
      [
        "nS",
        "o"
      ],
      [
[...]
